the 511223
, 423295
. 334388
of 245518
in 199063
and 198075
a 171198
to 138961
is 98392
was 80194
) 72413
( 72132
as 64298
on 59473
for 51974
by 48057
with 44587
that 44230
's 42387
it 41475
he 38503
an 36414
are 36081
at 35020
from 34520
'' 34429
`` 33940
his 33837
or 31740
which 24762
be 22062
: 19338
were 19307
also 19102
first 19095
one 18692
this 18394
has 17899
have 17098
not 16533
they 16344
had 15867
its 15708
-@@ 14842
re@@ 14800
their 14594
; 14477
i 14352
after 13919
but 13709
other 13674
her 12971
k@@ 12668
who 12524
es 12433
d@@ 12394
two 12253
when 12177
can 12001
most 11914
used 11715
new 11658
she 11287
t@@ 11150
s@@ 11141
g@@ 11035
ing 10878
time 10745
in@@ 10732
o 10677
er 10557
many 10410
called 10358
been 10322
some 10174
known 10073
all 10064
there 10037
o@@ 9945
world 9825
more 9823
t 9731
i@@ 9620
p@@ 9597
b@@ 9489
m@@ 9452
into 9301
s 9218
e@@ 9119
e 8978
- 8879
made 8878
n@@ 8720
us 8684
c@@ 8598
may 8573
ation 8569
ed 8538
such 8510
y@@ 8446
only 8295
en@@ 8288
during 8271
people 8101
city 8031
about 7994
united 7908
years 7820
became 7721
states 7715
a@@ 7715
h@@ 7665
al@@ 7632
than 7519
un@@ 7480
born 7470
where 7343
f@@ 7235
american 7189
al 7186
part 7118
over 7111
de 7035
y 7034
l@@ 7029
ers 7021
2 6997
ar@@ 6879
di@@ 6866
r@@ 6847
z@@ 6827
between 6825
de@@ 6825
up 6809
' 6783
u@@ 6771
ro@@ 6762
er@@ 6755
v@@ 6711
an@@ 6646
m 6553
ch@@ 6542
sh@@ 6534
later 6398
le@@ 6383
k 6363
three 6360
music 6324
1 6255
then 6240
these 6181
am@@ 6178
co@@ 6147
war 6145
king 6127
d 6108
name 6071
while 5986
li@@ 5956
ts 5934
him 5923
con@@ 5922
st@@ 5889
w@@ 5785
out 5782
use 5769
ti@@ 5729
would 5729
ate 5697
state 5624
se@@ 5606
year 5598
el@@ 5596
j@@ 5554
at@@ 5532
age 5531
second 5507
n 5420
south 5385
number 5358
p 5356
3 5305
or@@ 5274
ri@@ 5262
son 5261
because 5217
including 5215
well 5186
man 5163
no 5156
th@@ 5056
u 5051
si@@ 5043
st 5034
series 5003
often 5000
album 4994
so 4982
g 4901
north 4880
both 4877
released 4844
sp@@ 4822
as@@ 4792
before 4787
work 4785
ad@@ 4766
like 4761
ab@@ 4750
en 4740
ine 4739
em@@ 4736
on@@ 4733
4 4715
ted 4703
2@@ 4699
ac@@ 4693
them 4688
very 4686
being 4685
ne@@ 4664
family 4659
land 4657
l 4655
national 4651
pro@@ 4631
lo@@ 4630
mo@@ 4626
found 4620
be@@ 4618
through 4611
c 4593
group 4528
each 4516
5 4486
area 4465
system 4432
it@@ 4412
however 4396
four 4389
mar@@ 4383
ated 4369
early 4361
until 4339
same 4319
b 4315
since 4303
university 4270
under 4258
will 4236
ra@@ 4210
way 4185
ds 4180
if 4166
do 4165
ting 4148
several 4142
6 4131
form 4131
different 4098
large 4093
any 4083
ha@@ 4070
car@@ 4040
ia 4039
3@@ 4030
day 3984
century 3973
english 3947
british 3941
ic@@ 3940
is@@ 3935
small 3934
ma@@ 3931
school 3923
par@@ 3910
named 3910
band 3909
pe@@ 3906
ap@@ 3867
man@@ 3841
water 3817
bo@@ 3813
west 3811
now 3800
able 3798
8 3777
x@@ 3764
won 3764
game 3764
x 3762
bar@@ 3761
ge@@ 3753
ks 3737
species 3716
pi@@ 3690
film 3686
season 3680
ans 3672
began 3669
around 3663
house 3659
team 3658
tion 3649
september 3647
life 3635
mon@@ 3624
usually 3607
7 3595
op@@ 3580
played 3568
did 3561
end 3531
john 3528
ding 3521
\/ 3506
best 3489
although 3488
no@@ 3486
make 3484
ol@@ 3472
october 3469
german 3468
major 3464
long 3455
own 3454
government 3446
ar 3432
ly 3430
east 3427
ations 3418
dis@@ 3407
high 3400
ur@@ 3395
ag@@ 3384
back 3360
ic 3356
vi@@ 3345
june 3337
gu@@ 3335
ul@@ 3333
line 3329
river 3323
ton 3323
to@@ 3302
great 3275
died 3272
le 3268
su@@ 3262
im@@ 3259
set 3258
place 3254
ii 3246
french 3245
10 3237
per@@ 3236
old 3222
based 3220
als 3197
9 3186
million 3184
ph@@ 3182
march 3177
january 3171
july 3171
te@@ 3165
august 3164
der 3160
bi@@ 3154
he@@ 3150
se 3141
another 3137
main 3137
december 3128
father 3121
4@@ 3117
against 3100
town 3099
ber@@ 3098
el 3097
led 3081
england 3079
show 3070
last 3057
ant 3057
following 3053
inter@@ 3049
november 3048
ating 3040
qu@@ 3038
largest 3037
pre@@ 3035
ous 3032
ent 3024
ons 3015
e-@@ 3004
z 3000
\/@@ 2998
started 2996
games 2993
include 2988
common 2984
much 2976
me@@ 2976
` 2971
es@@ 2967
single 2948
% 2940
april 2936
language 2931
international 2919
te 2912
london 2911
president 2905
f 2903
ed@@ 2900
do@@ 2894
field 2885
country 2881
death 2881
important 2878
18@@ 2866
ca@@ 2855
20 2838
po@@ 2835
could 2826
said 2824
county 2822
16@@ 2815
sea 2814
body 2807
ver@@ 2805
bu@@ 2802
song 2801
using 2799
har@@ 2789
five 2785
children 2784
ded 2777
air 2776
party 2774
island 2774
february 2762
still 2761
modern 2756
gi@@ 2750
sometimes 2746
took 2740
example 2738
r 2736
book 2731
ec@@ 2726
left 2726
center 2726
given 2725
ex@@ 2722
ter@@ 2703
history 2702
home 2697
red 2692
ru@@ 2690
br@@ 2687
ta@@ 2683
30 2670
w 2666
play 2663
hi@@ 2662
7@@ 2657
la@@ 2656
white 2655
sc@@ 2654
ir@@ 2648
ni@@ 2646
television 2644
au@@ 2644
formed 2643
sa@@ 2639
th 2636
h 2626
ter 2626
om@@ 2619
il@@ 2600
company 2594
times 2594
members 2587
ally 2585
ke 2583
york 2581
° 2579
v 2572
ings 2572
army 2571
australia 2562
member 2556
ten@@ 2554
cor@@ 2546
les 2541
5@@ 2538
third 2537
general 2532
mu@@ 2531
ity 2526
tropical 2526
power 2524
um 2522
near 2518
germany 2516
rock 2514
cl@@ 2512
ian 2510
tions 2508
fl@@ 2505
ates 2503
period 2502
sion 2501
12 2498
15 2498
6@@ 2496
central 2489
countries 2483
built 2482
church 2481
become 2479
pl@@ 2472
du@@ 2468
written 2457
even 2452
side 2435
held 2430
2010 2429
17@@ 2429
term 2422
western 2421
less 2412
order 2411
popular 2408
along 2407
sts 2390
america 2385
u.s. 2384
within 2382
located 2379
tr@@ 2379
ves 2377
movie 2370
france 2369
for@@ 2358
moved 2351
men 2345
off 2344
us@@ 2344
down 2344
na@@ 2337
point 2332
went 2324
six 2324
live 2323
fi@@ 2323
wrote 2323
top 2322
what 2318
ke@@ 2318
light 2315
we@@ 2309
law 2308
public 2308
2007 2307
her@@ 2300
ps 2295
ent@@ 2289
ho@@ 2278
parts 2277
tic 2275
pa@@ 2269
com@@ 2263
tri@@ 2259
15@@ 2257
player 2254
tu@@ 2250
ins 2244
mor@@ 2243
art 2243
é@@ 2241
late 2236
black 2234
young 2228
ve 2223
famous 2223
kingdom 2216
mer@@ 2216
word 2211
head 2204
2008 2202
bl@@ 2197
union 2197
former 2193
str@@ 2193
bur@@ 2192
college 2190
person 2186
11 2185
the@@ 2184
storm 2175
league 2173
earth 2170
1@@ 2168
go@@ 2165
os 2164
.@@ 2163
royal 2163
due 2159
european 2158
force 2156
tra@@ 2135
min@@ 2134
though 2128
europe 2126
ard 2123
ˈ@@ 2121
ism 2121
ite 2119
works 2118
ak@@ 2116
25 2116
ci@@ 2113
type 2111
go 2103
see 2102
ba@@ 2097
sub@@ 2093
et 2093
ty 2092
2006 2092
ked 2091
created 2087
ing@@ 2082
original 2081
da 2081
region 2079
act 2072
those 2072
just 2071
park 2071
produced 2066
des 2053
2009 2053
northern 2050
came 2049
16 2048
ance 2047
fer@@ 2046
2011 2041
making 2038
ste@@ 2035
km 2034
ad 2032
ch 2032
sch@@ 2031
ley 2025
14 2017
award 2015
8@@ 2014
together 2013
next 2005
9@@ 2004
similar 2002
developed 1999
ob@@ 1992
mother 1991
human 1989
does 1980
cu@@ 1979
ment 1976
der@@ 1976
capital 1976
married 1976
ice 1974
tive 1961
military 1959
published 1955
um@@ 1952
few 1950
ble 1946
william 1942
football 1939
fr@@ 1932
18 1930
ents 1928
am 1925
la 1925
non-@@ 1918
13 1911
17 1910
days 1905
gh@@ 1903
title 1902
ten 1901
mi@@ 1898
take 1895
ang@@ 1889
10@@ 1889
division 1887
considered 1886
tor@@ 1883
according 1873
today 1869
star 1867
among 1867
all@@ 1863
southern 1862
21 1862
women 1862
ina 1859
good 1859
record 1859
having 1858
war@@ 1856
means 1856
short 1856
fe@@ 1849
ies 1842
forms 1841
uses 1840
population 1840
sal@@ 1838
championship 1835
ou@@ 1833
hurricane 1825
battle 1823
roman 1819
included 1817
received 1816
version 1816
2005 1814
over@@ 1811
lu@@ 1808
ge 1807
id 1800
you 1799
ell@@ 1797
building 1794
service 1789
role 1787
fa@@ 1784
ary 1784
d-@@ 1783
areas 1774
ry 1769
every 1769
ator 1766
republic 1765
forces 1765
per 1765
natural 1762
james 1751
low 1749
local 1749
af@@ 1746
greek 1738
again 1737
ven@@ 1735
club 1732
science 1728
under@@ 1726
so@@ 1722
ors 1721
ga@@ 1720
miles 1719
wife 1715
can@@ 1715
ker 1714
t-@@ 1709
energy 1708
pu@@ 1705
hu@@ 1704
worked 1703
gar@@ 1700
without 1698
video 1693
14@@ 1693
sk@@ 1692
study 1691
50 1691
id@@ 1689
ev@@ 1688
24 1688
19 1687
me 1687
ship 1685
get 1682
ther@@ 1682
founded 1681
air@@ 1680
help 1678
control 1677
jo@@ 1676
various 1671
ist 1670
space 1669
den@@ 1669
position 1667
$ 1665
ve@@ 1663
ft 1663
ati@@ 1662
style 1659
empire 1659
songs 1657
seven 1657
et@@ 1657
stone 1648
sur@@ 1645
del@@ 1640
ical 1639
els 1636
australian 1636
final 1630
free 1627
end@@ 1626
others 1626
super@@ 1626
ens 1623
ari@@ 1621
ig@@ 1620
political 1617
eastern 1615
fin@@ 1615
george 1606
how 1605
22 1601
gl@@ 1598
career 1597
28 1593
100 1592
ali@@ 1592
living 1591
fre@@ 1590
bal@@ 1590
grand 1587
27 1587
23 1587
2012 1584
y-@@ 1583
california 1581
animals 1577
japanese 1577
india 1576
wi@@ 1576
ver 1575
ko@@ 1573
must 1572
special 1570
key 1568
story 1567
ow@@ 1566
gen@@ 1565
japan 1565
mi 1564
daughter 1563
level 1563
islands 1562
il 1560
little 1559
thought 1559
ats 1555
change 1555
ics 1555
ely 1554
0 1550
val@@ 1548
served 1547
ser@@ 1544
ford 1542
ra 1541
wh@@ 1539
hor@@ 1535
lin@@ 1535
0@@ 1534
match 1534
official 1532
total 1531
bor@@ 1530
ne 1530
os@@ 1526
ses 1523
ler 1522
ters 1519
either 1518
development 1517
race 1516
groups 1516
26 1515
= 1513
records 1511
district 1511
originally 1508
generally 1508
color 1507
gr@@ 1506
ana 1506
caused 1498
rec@@ 1497
ancient 1496
russian 1495
pri@@ 1494
love 1492
food 1492
established 1491
station 1490
hy@@ 1490
gave 1488
ants 1487
soviet 1487
includes 1487
sed 1481
lost 1480
right 1475
joined 1473
bra@@ 1472
seen 1472
gra@@ 1471
night 1469
charles 1469
court 1465
once 1465
ant@@ 1463
ster 1462
minister 1461
cr@@ 1457
lived 1456
cur@@ 1456
ta 1453
playing 1453
col@@ 1450
support 1450
queen 1450
range 1449
open 1446
site 1442
ology 1441
languages 1439
latin 1437
oc@@ 1436
ore 1436
god 1436
ty@@ 1435
recorded 1431
pen@@ 1431
char@@ 1431
continued 1429
ach@@ 1429
tor 1425
dy 1423
2004 1423
ness 1422
surface 1420
working 1419
commonly 1416
ju@@ 1416
ma 1416
opera 1416
italian 1415
cre@@ 1413
pan@@ 1411
ep@@ 1410
ns 1406
research 1404
across 1403
words 1403
chemical 1402
win 1400
result 1399
books 1398
40 1397
tur@@ 1396
social 1394
china 1392
players 1392
ever 1391
29 1391
character 1390
2000 1387
systems 1386
lead 1386
ade 1385
dec@@ 1383
green 1383
instead 1382
ence 1381
bs 1380
henry 1378
types 1376
ement 1376
coast 1374
hall 1373
est 1373
awards 1372
current 1368
almost 1366
mass 1364
bre@@ 1363
least 1363
sol@@ 1363
sent 1362
professional 1362
mc@@ 1361
africa 1359
taken 1355
event 1355
summer 1354
away 1353
fish 1352
ability 1350
months 1349
returned 1348
fire 1348
orchestra 1348
movement 1348
big 1345
berg 1345
soon 1343
spanish 1341
road 1339
cy@@ 1337
da@@ 1336
ial 1334
13@@ 1333
sen@@ 1332
performed 1331
length 1329
dr@@ 1329
child 1326
canada 1326
sing 1326
middle 1325
brother 1321
san 1318
enti@@ 1318
referred 1316
square 1315
2013 1312
ines 1310
bri@@ 1305
uk 1305
thus 1304
paris 1303
stage 1301
come 1301
cells 1300
cap@@ 1299
ages 1299
province 1299
pol@@ 1298
2001 1298
metal 1297
lower 1297
ties 1296
council 1292
bridge 1291
and@@ 1290
ders 1290
appeared 1288
airport 1288
dem@@ 1288
ay 1285
ger@@ 1285
ned 1285
ms 1285
radio 1285
bas@@ 1283
actor 1281
size 1281
half 1280
theory 1280
never 1279
lake 1279
musical 1278
described 1278
s-@@ 1278
strong 1277
meaning 1277
especially 1272
reached 1272
2003 1270
plants 1270
related 1269
res 1264
run 1262
tw@@ 1262
1.@@ 1261
stars 1260
attack 1258
killed 1258
ce@@ 1257
ann@@ 1255
out@@ 1255
ling 1254
& 1253
announced 1250
sold 1249
tro@@ 1246
office 1243
himself 1243
wa@@ 1242
hol@@ 1240
process 1240
release 1239
successful 1238
ways 1238
uni@@ 1237
mat@@ 1237
ay@@ 1236
case 1235
sive 1233
singer 1232
0-@@ 1232
traditional 1232
sions 1230
female 1230
eight 1229
ended 1228
chinese 1228
nor@@ 1227
street 1227
tes 1227
ys 1224
ben@@ 1223
production 1221
changed 1220
mal@@ 1218
throughout 1218
should 1217
mil@@ 1216
ner 1213
leader 1213
director 1212
car 1211
ber 1211
trans@@ 1211
ane 1210
we 1208
ative 1207
ground 1207
anti@@ 1207
cup 1206
ill@@ 1205
dic@@ 1205
ger 1204
á@@ 1199
standard 1199
185@@ 1199
academy 1195
emperor 1195
christian 1194
points 1193
ring 1192
present 1192
ale 1192
society 1191
shi@@ 1189
structure 1189
mary 1189
wood 1186
list 1186
on-@@ 1185
eu@@ 1185
sted 1185
cal@@ 1185
aw@@ 1184
cities 1184
program 1184
mostly 1182
robert 1182
va 1181
federal 1179
ga 1178
numbers 1178
je@@ 1177
civil 1175
don@@ 1174
ka 1173
opened 1172
ash@@ 1172
our 1169
prize 1168
tour 1166
atlantic 1165
studio 1164
got 1164
rather 1164
birds 1163
put 1161
design 1161
gre@@ 1158
information 1158
ss 1157
tt@@ 1157
asia 1156
tre@@ 1153
events 1152
fourth 1152
independent 1150
met 1150
gas 1150
success 1150
discovered 1149
addition 1149
board 1148
close 1148
larger 1148
sw@@ 1147
rights 1147
bc 1146
hit 1146
ah 1146
ments 1146
studied 1144
signed 1144
ce 1143
writing 1143
model 1143
up@@ 1142
give 1139
ireland 1139
italy 1137
computer 1136
front 1136
certain 1135
tim@@ 1135
above 1133
los 1133
via 1133
ban@@ 1132
ori@@ 1132
co-@@ 1131
2002 1131
britain 1131
sm@@ 1130
followed 1129
plant 1127
ids 1127
sun 1122
eventually 1121
fu@@ 1121
wal@@ 1121
est@@ 1118
outside 1117
let 1116
blue 1115
my 1115
uc@@ 1113
better 1113
makes 1110
teams 1110
al-@@ 1109
community 1108
wide 1104
organization 1103
tar@@ 1103
,000 1102
formula 1101
ago 1101
era 1101
st. 1099
further 1099
start 1098
ward 1098
performance 1098
dra@@ 1097
1,@@ 1097
designed 1095
edward 1094
0,000 1094
tic@@ 1093
ass@@ 1093
eng@@ 1092
smaller 1091
olympic 1088
shows 1087
lines 1087
class 1087
blood 1086
sound 1085
money 1085
beginning 1085
upon 1084
dance 1084
ocean 1084
divided 1082
port 1082
fied 1082
por@@ 1082
find 1081
31 1080
q@@ 1079
saw 1074
kar@@ 1073
ise 1072
re 1071
don 1070
bel@@ 1069
vo@@ 1068
ric@@ 1068
changes 1067
leading 1064
washington 1064
museum 1063
full 1062
na 1060
win@@ 1057
bon@@ 1057
cell 1056
sti@@ 1056
action 1055
names 1055
200 1054
sa 1053
re-@@ 1053
association 1053
police 1051
aircraft 1051
ure 1049
elected 1045
material 1045
tors 1042
prime 1041
comes 1041
0s 1040
sex 1037
stri@@ 1037
prince 1037
ils 1035
bul@@ 1035
artist 1033
bro@@ 1033
cas@@ 1032
paul 1030
1999 1030
territory 1030
pe 1030
+ 1029
0.@@ 1029
wing 1028
louis 1028
cause 1027
che@@ 1027
sports 1025
return 1024
hand 1023
60 1023
ey 1021
land@@ 1021
piano 1021
dutch 1020
ba 1019
election 1019
itself 1018
indian 1016
men@@ 1016
squ@@ 1016
187@@ 1015
active 1015
source 1015
round 1014
native 1014
fil@@ 1013
cam@@ 1012
a-@@ 1012
ren@@ 1012
wanted 1012
whose 1008
yo@@ 1007
bay 1006
ving 1006
elements 1005
iii 1005
ich 1005
possible 1004
berlin 1002
move 1000
features 999
introduced 999
chief 998
ell 998
parents 997
depression 997
too 997
male 996
business 995
sam@@ 993
thomas 993
di 992
ston 992
woman 992
produce 990
pul@@ 990
richard 988
idea 988
bank 987
ful 987
far 987
atic 986
base 985
writer 984
az@@ 983
hot 982
date 982
disney 982
brown 981
gold 980
associated 978
believed 977
hon@@ 977
hal@@ 977
han@@ 976
pr@@ 975
n't 974
duke 974
electric 974
sting 973
real 973
wor@@ 971
allowed 970
pal@@ 970
sun@@ 970
pressure 967
sexual 967
ville 966
184@@ 966
wales 965
nine 965
ised 965
hel@@ 964
pacific 963
replaced 963
brought 962
pat@@ 962
new@@ 962
van 962
highest 960
dor@@ 960
boy 959
cat@@ 958
mexico 957
longer 957
below 957
ster@@ 956
typically 955
ect 955
debut 954
things 953
currently 953
upper 952
winter 951
plays 951
education 949
separate 948
sil@@ 947
peter 946
friend 945
ner@@ 945
ü@@ 944
lord 943
birth 942
12@@ 942
tv 940
ths 940
ular 939
dar@@ 939
ie 939
studies 938
higher 938
lands 937
albums 936
ica 936
village 934
catholic 934
spain 933
parliament 932
room 931
que 931
russia 930
david 929
particularly 929
complex 929
gs 928
added 927
master 926
ball 926
1998 926
ot@@ 926
religious 926
ators 925
decided 924
my@@ 924
piece 923
ham@@ 922
att@@ 922
feet 921
individual 920
va@@ 919
cle@@ 919
comp@@ 918
table 918
minor 917
80 917
sta@@ 915
becoming 913
media 913
michael 913
dro@@ 912
gro@@ 911
pope 911
ches 909
heavy 909
oil 908
novel 907
despite 907
19th 907
degree 907
carbon 906
sky 906
officially 904
terms 904
é 904
arts 903
scale 903
primary 903
pra@@ 902
forced 902
students 902
animal 901
ff@@ 901
speed 901
mac@@ 901
ile 901
rest 899
top@@ 899
doctor 899
sir 899
... 898
governor 898
composer 896
function 895
ls 895
nic@@ 894
placed 894
tan@@ 894
places 892
medical 892
ə@@ 892
poly@@ 891
moving 891
done 891
widely 891
available 890
boo@@ 890
hard 889
2.@@ 888
network 887
particular 887
500 887
acid 887
metres 886
sin@@ 886
ill 886
helped 886
heart 885
nam@@ 884
sister 884
significant 884
cra@@ 883
ff 883
dre@@ 883
engine 883
test 882
african 882
ka@@ 882
1995 881
183@@ 881
track 880
mainly 879
smith 879
amount 877
services 877
always 876
iron 876
takes 876
ham 875
1-@@ 875
sar@@ 873
enough 873
ja@@ 873
ath@@ 873
ying 872
ory 872
actress 870
friends 870
composed 869
clo@@ 868
vel@@ 867
nuclear 866
ash 866
humans 866
kn@@ 865
mid@@ 865
mel@@ 865
reported 864
culture 864
1996 864
mis@@ 863
awarded 860
nations 859
bol@@ 858
approximately 858
tree 857
pieces 857
cro@@ 857
20th 856
simply 856
characters 856
dark 855
mark 855
buildings 854
covered 854
rule 853
dy@@ 853
finished 853
irish 852
shown 852
iz@@ 852
ess 852
earlier 851
hill 851
temperature 851
construction 850
recording 850
valley 847
winning 846
labor 846
week 846
formation 845
ip@@ 844
ological 843
ase 843
tional 841
burg 841
classical 841
films 840
specific 840
star@@ 839
1994 838
behind 838
going 837
hours 837
saint 837
chart 837
taking 836
lot 834
1997 834
comm@@ 834
ram@@ 834
spent 834
om 834
ars 833
ically 831
stop 831
ku@@ 830
inside 830
:@@ 830
section 830
singles 829
wind 828
units 828
spec@@ 827
3.@@ 827
nearly 826
far@@ 826
sli@@ 826
ir 825
whom 825
project 824
2-@@ 824
need 824
c. 823
scotland 823
data 823
5-@@ 821
damage 821
fle@@ 821
cru@@ 821
racing 821
'@@ 821
ong@@ 820
future 819
remained 819
ick 818
coun@@ 817
cm 817
rac@@ 817
rel@@ 817
railway 816
70 816
passed 815
ry@@ 814
genus 813
ss@@ 813
course 812
commercial 812
ong 811
average 811
sl@@ 811
6-@@ 811
turn 811
defense 810
fall 809
den 809
wat@@ 809
by@@ 809
previous 808
physical 808
mid-@@ 808
unit 807
eg@@ 807
episode 805
trade 805
variety 805
die 805
pic@@ 804
true 804
nation 804
chicago 804
complete 803
ged 803
quickly 803
pon@@ 803
sto@@ 802
stra@@ 802
shed 800
champion 799
lee 799
ena 799
virginia 799
row 798
acy 797
nature 796
ki@@ 796
sec@@ 795
gn@@ 795
ca 794
forest 794
defeated 793
told 792
disease 792
cli@@ 791
san@@ 790
weight 790
health 790
paper 789
florida 789
188@@ 788
din@@ 787
weeks 787
jackson 787
sem@@ 787
ath 786
lar@@ 786
micro@@ 784
dead 784
entire 784
ny 784
victoria 783
bat@@ 783
hum@@ 783
ously 782
contains 782
border 782
ear@@ 782
# 781
self-@@ 781
ships 781
bed 780
cent@@ 780
wil@@ 779
say 778
ly@@ 777
4-@@ 777
in-@@ 777
kind 777
ith 776
kes 776
anne 776
face 775
pur@@ 775
equ@@ 775
st-@@ 774
mit@@ 774
castle 772
ching 770
interest 770
greater 770
ys@@ 770
mountains 769
canadian 768
ran@@ 768
prix 767
machine 766
elizabeth 766
influence 765
department 765
page 765
subject 765
ium 765
sor@@ 764
older 764
heat 764
evidence 763
remains 763
author 763
19@@ 763
indi@@ 762
tal@@ 761
behavior 761
ones 761
inc@@ 760
sport 760
texas 760
ː@@ 760
ata 759
effect 759
running 759
ol 759
sign 758
stan@@ 758
ide 757
ese 757
worth 757
private 757
wall 757
cross 757
ze 756
host 756
directed 755
arch@@ 754
rome 754
ements 753
cover 753
mus@@ 753
article 753
appointed 753
conditions 753
artists 753
1990 752
assi@@ 751
movies 751
magazine 751
1992 750
hand@@ 750
navy 750
lan@@ 750
feature 749
medal 749
tail 748
probably 748
martin 748
here 747
worldwide 747
oldest 747
ped 747
sum@@ 746
co 746
majority 746
training 745
festival 745
acting 745
examples 745
mas@@ 745
problems 745
len@@ 744
flight 744
scientific 743
zz@@ 743
seat 743
cases 743
our@@ 743
troops 742
ination 741
ently 741
lies 741
′ 741
might 741
relationship 740
ani@@ 740
already 740
cop@@ 740
enc@@ 739
regions 739
200@@ 739
schools 738
personal 738
super 738
theater 736
lat@@ 736
run@@ 736
alist 735
! 735
angeles 734
od@@ 734
operation 733
kin@@ 733
179@@ 733
speci@@ 732
fiction 732
er-@@ 732
hen@@ 731
whole 731
fun@@ 731
ented 731
wrestling 731
chemistry 730
entered 730
kh@@ 730
regular 730
try 730
bit 729
guitar 729
lam@@ 729
bird 728
ture 728
korean 727
ality 727
says 727
gal@@ 726
mountain 726
180@@ 725
industry 725
past 724
jesus 724
shot 724
ized 724
honor 724
solar 724
instruments 724
tran@@ 723
economic 723
direct 722
charge 722
stated 721
nu@@ 721
involved 721
ery 720
consists 720
ney 720
cri@@ 720
finally 719
moon 719
technology 718
jac@@ 718
kilometres 718
pres@@ 718
bil@@ 717
sons 717
ble@@ 717
pop 717
grew 716
1989 716
bad 715
are@@ 715
ched 714
fifth 714
simple 714
committee 713
nobel 713
gam@@ 713
asked 712
collection 712
mission 712
job 712
ya 711
shes 710
recognized 710
sia 710
1991 709
institute 709
greatest 709
husband 708
syn@@ 708
oo@@ 707
status 707
3-@@ 707
concert 706
vis@@ 706
tun@@ 706
eggs 706
py@@ 706
golden 705
son@@ 705
distance 705
chess 705
oli@@ 704
1993 704
channel 704
normal 704
iled 703
pakistan 703
vi 702
ö@@ 702
o-@@ 702
ites 701
recent 700
ino 700
arm@@ 700
completed 699
practice 699
ene 698
и@@ 698
ut@@ 697
symphony 696
onic 696
rain 696
marriage 695
object 695
mag@@ 695
ken@@ 695
ther 694
ered 694
rules 693
lives 693
stein 693
rich 692
ama 692
stories 692
ple@@ 691
trac@@ 691
leaving 691
professor 690
palace 690
independence 690
primarily 689
competition 689
opening 689
fact 688
arms 688
basic 688
ved 687
ɪ@@ 687
girl 687
vic@@ 687
korea 686
reaction 686
turned 685
jewish 685
ning 685
gh 685
00 685
dri@@ 685
needed 684
two-@@ 684
joseph 684
ai 684
ran 684
market 683
except 683
shire 683
ire 682
form@@ 682
sides 682
anti-@@ 681
wit@@ 681
blues 681
ah@@ 681
therefore 680
defined 680
directly 680
pt@@ 680
required 680
j 680
sian 679
yellow 678
hockey 678
ational 678
giving 678
ists 678
copies 678
claimed 677
í@@ 676
sses 676
create 676
themselves 676
soldiers 676
ach 675
leave 675
ish 675
limited 675
stadium 674
tom@@ 674
hun@@ 674
featured 674
ella 674
ays 674
owned 673
alism 673
mario 673
attended 673
generation 673
pped 672
planet 672
high@@ 671
code 671
atory 671
entertainment 670
d'@@ 670
marine 669
spar@@ 669
starting 669
tried 668
deep 668
levels 667
serve 666
conductor 666
revolution 665
fields 665
iv 665
activity 665
tics 664
mur@@ 664
location 663
4.@@ 663
lady 662
gene 662
tells 662
wwe 662
tin 661
dna 660
ams 660
stat@@ 660
а@@ 659
ck 659
explo@@ 659
double 659
note 658
resi@@ 658
ker@@ 658
category 658
90 657
bass 657
vol@@ 657
mm 657
cultural 657
sh 656
allow 656
ined 656
fully 655
call 655
cou@@ 655
1986 655
fication 655
provide 654
sters 653
hom@@ 653
cold 653
austria 653
refers 653
initially 653
ini 652
tically 652
plane 651
k-@@ 651
1980 651
foreign 650
kings 649
letter 648
ball@@ 648
producer 648
month 648
rate 648
au 647
vari@@ 647
quar@@ 646
jan@@ 646
bun@@ 646
rise 646
tis 646
rou@@ 645
appear 645
ron@@ 645
gives 645
instrument 644
ack@@ 644
1969 644
solo 644
7-@@ 643
loc@@ 642
post 642
keep 642
democratic 641
acts 641
boeing 640
secretary 640
clar@@ 640
eth@@ 640
anna 640
silver 639
supported 639
zed 639
ts@@ 637
ack 637
ric 637
ologist 636
netherlands 636
plan 635
gri@@ 635
maria 635
ately 635
scottish 635
likely 634
ends 634
fac@@ 634
conference 634
historical 633
mol@@ 633
estimated 633
treaty 633
wikipedia 632
write 632
wel@@ 632
black@@ 632
e.g. 632
news 632
stre@@ 632
ssed 631
billboard 630
circuit 630
gor@@ 630
ine@@ 630
fur@@ 630
view 630
ze@@ 630
an-@@ 629
sel@@ 629
sho@@ 629
gener@@ 629
numerous 629
hold 628
duc@@ 628
whit@@ 628
library 628
equal 628
core 628
literature 628
lor@@ 628
plat@@ 627
serving 627
viol@@ 626
flat 626
1984 625
previously 625
tle 624
km2 624
fol@@ 624
bill 624
oxide 623
green@@ 622
fel@@ 622
pin@@ 622
photo@@ 622
ances 621
tion@@ 621
bet@@ 620
tru@@ 620
gun 620
zealand 620
aries 620
ā@@ 620
1988 620
peninsula 619
cer@@ 619
adult 619
believe 619
lets 619
mann 618
no. 618
20@@ 618
ang 618
legal 617
appearance 617
fly 616
del 616
colony 616
figure 616
engineering 615
towards 615
chi@@ 615
method 614
applied 614
laws 613
voice 613
ky 613
appears 613
ich@@ 613
von 612
organic 612
direc@@ 611
highly 611
houses 611
ily 610
sy@@ 610
play@@ 610
egypt 610
congress 609
gate 609
remaining 608
bit@@ 608
mean 608
ington 607
look 607
port@@ 607
bar 606
physics 606
campaign 606
ray 606
provided 606
nar@@ 605
count 605
gue 605
pp@@ 605
sand@@ 604
powerful 604
winds 604
hil@@ 604
effects 603
element 603
ast 603
raised 603
lab@@ 603
1967 603
direction 603
disp@@ 602
cut 600
cathedral 600
foot 600
ges 600
nation@@ 600
causes 599
bio@@ 599
dur@@ 599
engines 599
attempt 599
drama 599
leaves 599
ering 598
value 598
1945 598
dun@@ 598
tt 597
pass 597
think 597
mental 597
minutes 597
soci@@ 596
fight 596
clear 596
dol@@ 595
amm@@ 595
1979 594
ping 594
contract 594
problem 593
5.@@ 593
mem@@ 593
35 593
300 592
ess@@ 592
vers 592
1981 592
destroyed 592
accepted 592
pas@@ 591
gained 591
1960s 591
baseball 591
75 591
ace 590
ton@@ 590
skin 590
mount 590
israel 590
animated 589
build 589
objects 589
cycle 589
ä@@ 588
enz@@ 588
captain 588
companies 588
shape 588
cher 587
dynasty 587
attacks 587
ato 586
prior 586
spring 586
garden 586
ets 586
powers 586
dry 586
train 586
ideas 586
ot 586
relatively 585
mp@@ 584
wings 584
carolina 583
hop@@ 583
flu@@ 583
flag 583
goes 583
materials 582
wave 582
census 582
ac 581
sul@@ 581
colors 581
bad@@ 581
1972 580
earliest 580
aged 580
178@@ 580
pos@@ 579
towns 579
painting 579
spir@@ 579
sources 579
string 579
constitution 579
compounds 578
combined 578
bab@@ 578
declared 578
,@@ 578
fuel 577
notable 577
ie@@ 576
families 576
centuries 576
tly 575
she@@ 575
ordered 575
lou@@ 575
1987 575
olympics 575
fort 575
organisms 575
reach 575
peace 575
composers 574
itation 574
ox@@ 573
ful@@ 572
8-@@ 572
bell 572
actually 572
coming 572
officer 572
showed 571
religion 571
increased 571
trees 571
alexander 571
reign 571
inf@@ 571
rose 571
student 571
break 570
av@@ 570
cars 570
ele@@ 570
water@@ 570
met@@ 570
brain 570
bbc 570
races 568
pot@@ 568
ko 568
asian 567
ki 567
tem@@ 567
branch 567
stu@@ 566
val 566
relative 565
text 565
travel 564
tournament 564
ó@@ 564
eyes 564
back@@ 564
plan@@ 563
bury 563
programs 563
thor@@ 563
bach 563
versions 563
fy 562
high-@@ 562
cast 562
sequence 562
9-@@ 561
ius 561
lim@@ 561
holy 560
nominated 560
spoken 560
formal 560
brothers 560
hospital 560
comedy 559
ye@@ 559
horse 559
conducted 559
spon@@ 559
refer 558
experience 558
em 558
g-@@ 558
cancer 558
1982 558
30@@ 558
tower 558
fast 558
ak 557
ws 557
mph 557
software 557
1976 556
ov@@ 556
low@@ 556
magnetic 555
1974 555
historic 555
eat 555
influenced 555
vil@@ 554
commonwealth 554
tical 554
hydrogen 554
wild 554
southeast 553
prin@@ 553
sus 553
ballet 552
pun@@ 552
fron@@ 552
lit@@ 552
imperial 551
ali 551
sim@@ 551
kept 550
pictures 550
all-@@ 550
bin@@ 550
whether 550
off@@ 549
beach 549
districts 549
normally 549
biggest 549
1973 549
stock 548
bands 548
ano 548
buried 547
cul@@ 547
wood@@ 547
concept 547
armed 547
sites 546
oxygen 546
derived 546
overall 546
″ 546
disc@@ 546
closed 546
want 545
constitu@@ 545
jr. 545
press 545
spread 544
user 544
io 544
bert 544
authority 544
1970s 543
1980s 543
mic@@ 543
gets 543
blo@@ 542
seasons 542
ken 541
label 541
mixed 541
ects 539
episodes 539
girls 539
motion 539
camp 538
ket 538
arthur 538
growing 538
younger 538
refl@@ 537
products 537
stations 537
titled 537
sciences 537
apple 537
carried 537
positive 536
nearby 536
poor 536
alized 536
? 536
ples 535
selena 535
jack 535
fri@@ 535
weather 535
gun@@ 534
adopted 534
gulf 534
allows 534
unlike 534
foundation 533
sel 533
rit@@ 533
sn@@ 533
liber@@ 533
know 533
tou@@ 532
bes 532
dog 532
zing 532
− 532
multiple 532
mari@@ 531
post@@ 531
gy 531
northwest 531
ban 531
ea@@ 531
cab@@ 531
read 531
istic 530
head@@ 530
1970 530
proposed 530
environment 530
ick@@ 530
product 529
vers@@ 529
oph@@ 529
intended 529
responsible 528
goals 528
develop 528
nes 528
stro@@ 528
largely 528
solid 528
shortly 528
drive 527
gol@@ 527
vent@@ 527
box 527
oun@@ 527
sac@@ 527
oper@@ 527
weapons 527
scientists 526
celebr@@ 526
billion 526
le-@@ 526
origin 526
bodies 526
pair 525
ads 525
ili@@ 525
medicine 524
poland 524
symbol 524
ei@@ 523
amp@@ 523
letters 523
your 523
stal@@ 523
gen 522
join 521
main@@ 521
1968 521
discovery 521
alone 520
pap@@ 520
genetic 520
fruit 519
rivers 519
increase 518
2,@@ 518
ll@@ 518
claim 518
zo@@ 518
1944 518
sense 518
ulation 517
metropolitan 517
vienna 517
musician 517
ony 516
186@@ 516
dic 516
americans 516
1983 516
que@@ 516
persian 516
articles 516
growth 516
boston 515
exist 515
ا@@ 515
deal 515
tho@@ 515
internet 514
fame 514
tradition 514
ome@@ 514
е@@ 514
completely 514
frequently 514
yet 514
morning 514
25@@ 514
47 513
pre-@@ 513
32 513
ada 513
cape 512
zone 512
teacher 512
ending 512
annual 512
1975 512
difficult 512
universe 512
agreement 511
launched 511
lea@@ 511
management 511
matter 511
ency 511
response 511
copper 511
giant 511
atomic 511
jazz 511
luc@@ 511
follows 510
tom 510
1st 510
ected 510
occur 509
regarded 509
purpose 509
layer 509
vision 508
agu@@ 508
formerly 508
covers 508
stor@@ 508
roles 508
1949 508
evolution 508
ging 508
kill 507
iting 507
executive 507
si 506
massachusetts 506
presented 506
assembly 506
reason 506
route 506
pronunciation 506
waters 506
containing 506
issued 506
dan@@ 505
1960 505
è@@ 505
sets 505
listed 504
hear@@ 504
operating 504
activities 504
fighting 504
forming 503
typical 503
dom@@ 503
ians 502
prey 502
image 501
steel 501
flo@@ 501
runs 501
singing 501
dates 501
45 501
separ@@ 501
individuals 500
tol@@ 500
bran@@ 500
roc@@ 500
1977 500
gran@@ 500
princess 500
greece 500
chor@@ 500
sydney 499
compared 499
bom@@ 499
knowledge 499
sou@@ 499
insects 498
edition 498
shel@@ 498
attacked 498
care 498
hour 498
fla@@ 498
philosophy 498
picture 498
ha 498
sor 497
domin@@ 497
io@@ 497
occurs 497
methods 497
sign@@ 497
fought 497
shark 497
о@@ 496
electronic 496
ea 496
hem@@ 496
hair 496
mouth 495
boys 495
three-@@ 495
scene 495
describe 495
ero@@ 495
mir@@ 495
ino@@ 494
grow 494
33 494
liquid 494
comb@@ 494
command 493
uk@@ 493
strength 493
device 493
eye 493
psych@@ 493
victory 493
cont@@ 492
occurred 492
1978 492
kat@@ 492
radi@@ 492
km\/h 492
hea@@ 492
renamed 492
wars 491
austrian 491
agreed 491
failed 490
actions 490
connected 490
stan 490
to-@@ 490
represented 490
urban 490
1965 490
recently 490
folk 490
guitarist 490
additional 489
speaking 489
pit@@ 488
aches 488
50@@ 488
grand@@ 488
1971 487
6.@@ 487
creation 487
1985 487
thy 487
scre@@ 487
organized 486
fire@@ 486
structures 486
fal@@ 486
177@@ 486
musicians 485
allied 485
hydro@@ 485
marie 485
ater 484
split 484
may@@ 484
cin@@ 484
jones 484
earned 484
noted 484
ax@@ 484
retired 483
particip@@ 483
invasion 483
lau@@ 483
policy 483
prote@@ 483
wol@@ 483
fossil 482
meant 482
properties 482
kers 482
sixth 482
broke 482
taught 482
compound 482
sh-@@ 482
graphy 482
staff 482
read@@ 482
continue 481
ut 481
results 481
subsequently 481
arabic 481
biology 480
dogs 480
meet 480
bus@@ 480
organ 480
9.@@ 480
shaped 480
kinds 480
ɛ@@ 479
brazil 479
thro@@ 479
som@@ 479
dr. 478
ola 478
mr. 478
za 478
critics 478
secret 478
holds 478
migr@@ 478
notes 478
radiation 478
chosen 477
fir@@ 477
sta 477
heritage 477
industrial 477
pt 477
analysis 477
marked 477
glass 476
lon@@ 476
prison 476
int@@ 476
ame 476
7.@@ 475
pping 475
controlled 475
wy@@ 475
transport 475
mont@@ 475
attention 475
ja 474
founder 474
du 473
1947 473
hat@@ 473
gers 473
mammals 472
hoo@@ 472
combination 472
punk 472
serves 472
1941 472
windows 472
regional 471
1961 471
removed 471
score 470
down@@ 470
dal@@ 470
loss 470
financial 469
theme 469
lie 469
nintendo 469
emer@@ 469
1966 469
memory 469
jud@@ 469
naval 469
principal 468
ences 468
tin@@ 468
orange 468
ech@@ 467
spor@@ 467
stopped 467
yan 467
speech 467
ening 466
content 466
raw 466
400 466
1940 466
counter@@ 465
dig@@ 465
roman@@ 465
inv@@ 465
meeting 465
one-@@ 465
anc@@ 464
twelve 464
theatre 464
o'@@ 464
reli@@ 464
un 463
ame@@ 463
48 463
bac@@ 463
users 463
liberal 462
door 462
ual 462
tus 462
def@@ 462
chil@@ 462
property 462
ky@@ 462
volume 462
64 461
smo@@ 461
operations 461
manager 461
search 461
aff@@ 461
illinois 461
fox 460
harry 460
rocks 460
perform 460
til@@ 460
ased 460
contain 460
architecture 460
digital 460
lo 460
championships 459
dam@@ 459
ming 459
provinces 459
vote 458
waves 458
climate 458
security 458
paintings 458
bear 458
long-@@ 457
yl@@ 457
fell 457
immediately 457
wards 457
ows 457
senate 456
var@@ 456
mul@@ 456
writers 456
secondary 456
sion@@ 456
1964 456
stand 456
williams 455
selected 455
1959 455
selling 455
1963 455
presence 455
allowing 455
swe@@ 455
ole 454
dest@@ 454
flow 454
spi@@ 454
m. 454
settlement 454
develop@@ 454
lack 453
aling 453
dioxide 453
solution 453
occupied 453
access 453
traveled 453
ara 453
workers 453
glo@@ 453
ro 452
pho@@ 452
closely 452
resulting 452
net 452
mer 452
1948 452
eds 452
organizations 452
tures 452
ti 451
sen 451
bo 451
molecules 451
mathematics 451
1942 451
usa 451
rare 451
roll 450
slow 450
newspaper 450
ably 450
nit@@ 450
ion 450
tal 450
southwest 449
ef@@ 449
grammy 449
bishop 449
politician 448
ven 448
eur@@ 448
fo@@ 448
ruled 448
functions 448
ide@@ 448
ades 447
jane 447
1952 447
consisting 447
latter 447
key@@ 447
account 447
wear 447
driver 447
motor 447
cost 446
bian 446
prominent 446
ania 446
enter 446
alli@@ 446
belgium 445
н@@ 445
quali@@ 445
j. 445
frank 445
1946 445
post-@@ 445
cel@@ 445
web 444
ain@@ 444
verse 444
learned 444
inspired 444
b. 443
lincoln 443
store 443
bought 443
vir@@ 442
carry 442
contemporary 442
elec@@ 442
hit@@ 442
starred 442
corps 441
temple 441
rus@@ 441
ass 441
opposite 441
c-@@ 441
bow@@ 440
protection 440
switzerland 440
becomes 440
1990s 440
potential 440
twice 440
anda 440
nas@@ 439
med@@ 439
basis 439
males 439
polish 439
captured 439
cambridge 439
hotel 439
crown 438
performing 438
teeth 438
distribution 438
alternative 438
administrative 438
someone 438
od 438
separated 437
muslim 437
tracks 437
hands 437
aqu@@ 437
portion 437
georgia 437
36 437
communist 437
administration 437
meters 437
resistance 437
females 436
th-@@ 436
justice 436
winner 436
ited 436
talk 436
sic@@ 436
galaxy 436
surrounding 436
expected 436
constructed 436
plate 435
van@@ 435
borough 435
territories 435
composition 435
hin@@ 435
share 435
65 435
bour@@ 434
break@@ 434
columbia 434
portuguese 434
ee 434
haw@@ 434
saf@@ 434
infantry 434
chlor@@ 434
manchester 433
positions 433
gray 433
non@@ 433
legs 432
rna 432
1956 432
begins 432
calendar 432
nhl 432
tac@@ 432
coo@@ 431
mond 431
safety 431
suggested 431
commission 431
extended 431
christmas 431
ron 431
electro@@ 431
atoms 430
possibly 430
contact 430
lun@@ 430
mate 430
report 430
something 430
continental 430
screen 429
reading 429
emp@@ 429
convention 429
inst@@ 428
pennsylvania 428
jersey 428
medi@@ 428
senior 428
collec@@ 428
fra@@ 427
confirmed 427
hard@@ 427
visited 427
causing 426
internal 426
gg@@ 426
vege@@ 426
nazi 426
measure 426
trou@@ 426
alo@@ 426
with@@ 426
classic 426
gur@@ 426
exp@@ 426
ain 425
remain 425
brand 425
unique 424
eigh@@ 424
i-@@ 424
magn@@ 424
half-@@ 424
р@@ 424
follow 424
stable 424
jun@@ 423
ple 423
quality 423
plans 423
memorial 423
tab@@ 423
dish 423
sis 423
const@@ 423
planned 422
ohio 422
shar@@ 422
aboriginal 422
dies 422
edge 422
graduate 421
ologists 421
2014 421
negative 421
1957 421
1958 421
concerts 421
resulted 420
bible 420
idae 420
s. 419
bles 419
initial 419
pay 419
titles 419
traditionally 419
sus@@ 419
tons 418
poet 418
distinct 418
hitler 418
francisco 417
ining 417
calcul@@ 417
grade 417
cho@@ 417
ored 417
beat 417
sex@@ 417
violin 416
rain@@ 416
defeat 416
albert 416
tax@@ 416
juli@@ 416
ey@@ 416
psychology 415
king@@ 415
app@@ 415
etc. 415
respectively 414
economy 414
edi@@ 414
flying 414
johnson 414
oce@@ 414
ji@@ 414
sure 414
particles 413
ud 413
reg@@ 413
aired 413
chamber 413
inte@@ 413
adv@@ 413
ri 412
triple 412
comic 412
block 412
offered 412
republican 412
hou@@ 412
ental 412
ski 412
link 411
baby 411
1954 411
northeast 411
qui@@ 411
saying 410
parties 410
standing 410
bing 410
lac@@ 410
burn 410
detec@@ 410
emo@@ 410
brit@@ 410
fellow 410
1962 410
snow 409
stress 409
difference 409
setting 409
coach 409
models 408
anim@@ 408
kelly 408
actors 408
elli@@ 408
year-old 408
wa 408
motor@@ 408
fit@@ 408
why 408
bottom 407
inches 407
bush 407
flowers 407
ization 407
55 407
arrived 407
easily 407
reasons 407
i.e. 407
18th 406
É@@ 406
proce@@ 406
tha 406
ght 406
iran 406
goal 406
jec@@ 405
ai@@ 405
slightly 405
hay@@ 405
ute 405
teaching 405
tile 405
needs 405
well-@@ 405
1950s 405
west@@ 404
multi@@ 404
human@@ 404
churches 404
global 404
freedom 404
mississippi 404
hi 404
thing 404
roughly 404
reduced 404
guns 404
sing@@ 403
ae 403
impact 403
1955 403
learning 403
producing 403
issue 403
reference 403
mile 403
broadcast 403
cyclone 403
wall@@ 403
mit 403
divisions 403
bus 403
ō@@ 402
pel@@ 402
figures 402
publi@@ 402
exchange 402
37 402
guard 402
perhaps 402
prevent 401
matches 401
tube 401
guest 401
north-@@ 401
adults 401
onal 401
bronze 401
electrons 400
teenth 400
pes 400
frederick 400
dou@@ 400
visible 400
let@@ 400
straight 399
parti@@ 399
termin@@ 399
outer 399
crew 399
rot@@ 399
initi@@ 399
ace@@ 399
kno@@ 399
long@@ 399
alliance 398
1950 398
observed 398
ib@@ 398
archae@@ 398
advanced 398
refused 398
hosted 397
pole 397
appro@@ 396
graph@@ 396
bers 396
clu@@ 396
orbit 396
respon@@ 396
mind 396
sup@@ 396
42 396
43 396
traffic 395
kets 395
1953 395
kin 395
ills 395
borders 395
sweden 395
rum@@ 395
dle 395
drug 394
moscow 394
row@@ 394
kg 394
zi@@ 394
ann 394
plo@@ 393
salt 393
fe 393
visit 393
identified 393
allies 393
provides 393
dly 393
arab 392
supporting 392
1918 392
performances 392
conflict 392
capit@@ 392
unknown 392
2nd 391
acted 391
egyptian 391
arctic 391
ment@@ 391
lay@@ 391
question 391
sit@@ 390
peak 390
protec@@ 390
ides 390
dal 390
66 390
measured 390
charts 390
chain 389
nal 389
youth 389
34 389
contribu@@ 388
molecular 388
ette 388
arri@@ 388
pop@@ 388
paid 388
desert 388
ards 388
doc@@ 387
quite 387
graduated 387
exam@@ 387
height 387
daily 387
newly 387
succeeded 387
ghts 387
walt 387
conver@@ 386
sharks 386
boy@@ 386
developing 386
broken 386
ll 386
leaders 386
fashion 386
melbourne 385
treatment 385
1939 385
colon@@ 385
tit@@ 385
q 385
serv@@ 385
agency 385
thousands 385
olo@@ 385
singapore 384
lan 384
1919 384
bel 384
dam 384
painted 384
kir@@ 383
ep 383
antly 383
coastal 383
passengers 382
definition 382
yn@@ 382
regul@@ 382
display 382
mah@@ 382
bla@@ 382
dge 382
mes@@ 382
tel@@ 382
pa 382
landfall 381
bou@@ 381
ref@@ 381
box@@ 381
commander 381
hundred 381
deli@@ 381
fleet 381
step 381
sional 381
jupiter 381
baltimore 381
decision 381
deci@@ 381
bacteria 381
pages 380
rob@@ 380
armenian 380
en-@@ 380
dev@@ 380
basketball 379
ligh@@ 379
communication 379
owner 379
banks 379
phy@@ 379
shing 379
ym@@ 379
extremely 379
brow@@ 379
tual 379
hole 378
blu@@ 378
fossils 378
acc@@ 378
franc@@ 378
agent 378
universal 378
mes 378
kong 378
sugar 378
6th 378
sop@@ 378
epi@@ 378
wins 377
compete 377
card 377
charged 377
felt 377
filled 377
elections 377
issues 377
shell 377
choice 376
jer@@ 376
mini@@ 376
managed 376
killing 376
39 376
swedish 376
permanent 376
devices 375
ities 375
moves 375
portra@@ 375
settled 375
represent 375
kid@@ 375
escape 375
fer 375
ising 374
li 374
clim@@ 374
int 374
ome 374
suffered 374
cla@@ 374
tation 374
demonstr@@ 374
tar 374
itz 373
fro@@ 373
existing 373
cour@@ 373
equipment 373
cen@@ 373
shi 373
shop 373
dated 373
oxford 373
æ@@ 373
extreme 373
relations 373
ty-@@ 373
shor@@ 373
cher@@ 373
repe@@ 373
trains 372
graph 372
bay@@ 372
formally 372
stay 372
8.@@ 372
gon@@ 372
extinct 371
session 371
lad@@ 371
tell 371
critical 371
alia 371
ala 371
nfl 371
ound 370
creek 370
pil@@ 370
dia 370
ini@@ 370
ious 370
specifically 369
roads 369
hills 369
sper@@ 369
600 369
designated 369
images 369
seconds 369
capacity 369
styles 369
temperatures 368
bid@@ 368
ue 368
p-@@ 368
classified 368
speak 368
comman@@ 368
sized 368
protein 368
bon 368
stic 368
gar 368
novels 368
christ 368
taylor 368
rick 367
sey 367
defin@@ 367
doing 367
challeng@@ 367
equivalent 367
full-@@ 367
dele@@ 367
fic@@ 367
depending 367
municipal 366
recordings 366
vehicles 366
evolved 366
stric@@ 366
ean 366
1943 366
electron 366
x-@@ 365
decor@@ 365
arm 365
risk 365
cham@@ 365
marks 365
semi-@@ 365
constant 365
focus 365
subsequent 365
bi 364
visual 364
counties 364
forests 364
tall 364
expl@@ 364
federation 364
throne 364
phil@@ 363
gods 363
trying 363
intelligence 363
medieval 363
jen@@ 363
well-known 363
floor 362
ith@@ 362
graphic 362
online 362
se-@@ 362
1936 362
circle 362
electrical 362
kansas 362
neutr@@ 362
reviews 362
cell@@ 362
revol@@ 362
supply 362
organ@@ 361
atmosphere 361
diameter 361
lay 361
ranked 361
th-century 361
hits 361
storms 361
aci@@ 361
orders 361
1920 361
sodium 361
opposition 361
learn 360
chic@@ 360
divi@@ 360
imp@@ 360
passing 360
gation 360
atom 359
covering 359
ners 359
née 359
reaching 359
keys 359
classes 359
serious 359
ón 359
junior 359
inner 359
combat 359
michel@@ 359
han 358
pattern 358
starring 358
determined 358
compu@@ 358
francis 358
germans 358
sher@@ 358
hebrew 358
lic@@ 358
ula 358
jews 358
dence 358
crime 358
95 357
hunting 357
santa 357
looking 357
1917 357
extensive 357
existence 357
ature 357
protect 357
massive 356
illa 356
pad@@ 356
stages 356
depic@@ 355
wheel 355
fusion 355
ancy 355
socialist 355
clin@@ 355
movements 355
zero 355
cards 355
electricity 354
how@@ 354
popularity 354
max 354
construc@@ 354
periods 354
tag 354
л@@ 354
seventh 353
ever@@ 353
affected 353
passenger 353
illustr@@ 353
wan@@ 353
drew 353
3rd 353
bloc@@ 353
lion 353
bah@@ 353
sla@@ 353
с@@ 353
communities 353
youngest 353
dropped 353
d. 352
nag@@ 352
underground 352
necessary 352
pale@@ 352
elle 352
governments 352
representatives 352
38 352
apart 352
angle 352
percent 352
hungary 351
rice 351
couple 351
uck 351
pool 351
tec@@ 351
ises 351
ears 351
views 351
notably 351
á 351
mercury 351
uncle 351
happened 351
pent@@ 351
r. 350
scar@@ 350
draft 350
situated 350
strings 350
bone 350
kal@@ 350
continent 350
of@@ 350
failure 350
philip 350
3,@@ 349
nucle@@ 349
rat@@ 349
shared 349
к@@ 349
operated 349
phone 349
gan@@ 349
rank 349
politics 349
bits 348
16th 348
teen 348
ek 348
mont 348
sales 348
starts 348
rad@@ 348
ku 348
fans 348
alists 348
kit@@ 348
auto@@ 348
profes@@ 347
bring 347
damaged 347
func@@ 347
reserve 347
heard 347
fs 347
lakes 347
economics 347
gall@@ 347
ov 347
longest 347
rein@@ 347
ok@@ 347
beatles 346
ums 346
n-@@ 346
cent 346
crow@@ 346
tele@@ 346
red@@ 346
painter 346
fictional 345
assistant 345
harbor 345
secre@@ 345
40@@ 345
rev@@ 345
selection 345
wilson 345
lying 345
headquarters 344
spot 344
gil@@ 344
technical 344
receive 344
lock 344
begin 344
genre 344
pag@@ 344
bow 344
bob 344
but@@ 344
computers 344
tex@@ 344
asp@@ 344
supreme 344
ck@@ 344
medium 344
islamic 344
changing 344
ophy@@ 343
purposes 343
twenty-@@ 343
plic@@ 343
mass@@ 343
candidate 343
earthquake 343
founding 343
whereas 343
gy@@ 343
bis@@ 343
rapid 343
hero 342
tas@@ 342
resem@@ 342
dedicated 342
darwin 342
pronounced 342
ambi@@ 342
vietnam 342
falls 342
reactions 342
brian 342
studios 342
chapel 341
de-@@ 341
oms 341
allo@@ 341
proteins 341
convic@@ 341
ald 341
irs 340
pack@@ 340
holding 340
cat 340
stayed 340
mobile 340
pione@@ 340
mon 340
bility 340
sub-@@ 340
bull 340
corporation 340
ceremony 340
turkey 340
tim 340
abbey 340
vel 339
elev@@ 339
officers 339
provi@@ 339
dae 339
kennedy 339
virus 339
web@@ 339
ography 339
thir@@ 338
competed 338
1951 338
corn@@ 338
ung 338
soft 338
lieutenant 338
51 338
attempted 338
walls 338
rhe@@ 338
apar@@ 338
presidential 337
plac@@ 337
joint 337
capture 337
vals 337
́@@ 337
fixed 337
refer@@ 336
applications 336
revealed 336
printed 336
vin@@ 336
emergency 336
trophy 336
amounts 336
sy 336
athletes 336
milk 336
fying 336
uss 336
bones 336
1929 336
second-@@ 336
vit@@ 336
diplom@@ 335
zer 335
tives 335
tered 335
farm 335
sat@@ 335
clubs 335
67 335
occasionally 335
exclu@@ 335
stands 335
stones 335
tam@@ 335
cuba 335
studying 334
chance 334
voted 334
1933 334
1938 334
beyond 334
ports 334
wer@@ 334
scott 334
denmark 333
17th 333
pressed 333
cit@@ 333
florence 333
i. 333
â@@ 333
kor@@ 333
flies 333
bin 332
degrees 332
dd 332
nie 332
wright 332
scrip@@ 332
rus 332
planets 332
treas@@ 332
caribbean 332
ari 332
creating 332
bapti@@ 332
increasing 331
requ@@ 331
bond 331
south-@@ 331
mechanical 331
drawn 331
tis@@ 331
describes 331
ases 331
michigan 331
advance 331
56 331
ize 331
rows 331
chloride 330
compar@@ 330
identity 330
cow@@ 330
unable 330
dvd 330
vehicle 330
historically 330
colonies 330
north@@ 330
anus 330
ast@@ 330
huge 330
surviving 330
finds 330
dale 330
four-@@ 330
interpre@@ 329
alter@@ 329
joh@@ 329
contrast 329
items 329
phase 329
189@@ 329
mathematical 329
renaissance 329
roy@@ 329
teen@@ 329
murder 329
featuring 329
achieved 329
87 329
4th 329
dinosaurs 328
oes 328
highway 328
mediterranean 328
jum@@ 328
-like 328
christ@@ 328
hollywood 328
afghanistan 328
chec@@ 328
pilot 328
pper 327
lewis 327
draw 327
aging 327
grown 327
claims 327
ope 327
forward 327
41 327
anch@@ 327
hur@@ 327
adapted 326
connec@@ 326
entirely 326
conservative 326
lin 326
signal 326
harmon@@ 326
ph 326
eland 326
cast@@ 326
ade@@ 326
enemy 326
universities 326
trained 325
poem 325
operas 325
800 325
9th 325
gay 325
wagner 325
α@@ 325
rail 325
gments 325
differences 325
gain 325
tured 325
onia 324
sail@@ 324
150 324
a. 324
tations 324
concer@@ 324
las 324
mayor 324
colored 324
alongside 324
walter 324
mix@@ 324
saint-@@ 324
leg@@ 324
itary 324
gang 324
ira 323
evolutionary 323
las@@ 323
low-@@ 323
eau 323
technique 323
romantic 323
plastic 323
kins 323
ris 323
expanded 322
quanti@@ 322
ix 322
jordan 322
lic 322
warm 322
biological 322
robinson 322
entry 322
vul@@ 322
campus 322
inary 322
coordinates 322
factors 322
thre@@ 322
1922 322
dent 322
rab@@ 322
kan@@ 322
magne@@ 321
tain 321
chan@@ 321
tioned 321
interested 321
fa 321
mode 321
soul 321
alfred 321
5th 321
stores 321
53 321
champions 321
lec@@ 321
signs 321
cool@@ 320
condition 320
maximum 320
cemetery 320
inn@@ 320
attempts 320
acci@@ 320
dial@@ 320
xi@@ 320
effective 319
indigenous 319
axis 319
vy 319
philharmonic 319
shore 319
cloud 319
save 319
suicide 319
correct 319
ren 319
sburg 319
parallel 319
synthesis 319
\* 319
ō 319
nom@@ 318
citizens 318
tte 318
techniques 318
pose 318
phrase 318
70@@ 318
medic@@ 318
importance 318
saurus 318
160@@ 318
facilities 318
dil@@ 318
stanley 318
ories 318
leon@@ 318
suggests 318
disorder 317
eve 317
eleven 317
incorporated 317
lied 317
severe 317
launch 317
haz@@ 317
characteristics 317
eller 317
conv@@ 317
44 317
satellite 317
52 317
foot@@ 317
1900 317
acces@@ 317
aded 316
reas@@ 316
marry 316
invented 316
م@@ 316
repor@@ 316
exten@@ 316
improv@@ 316
basin 316
zinc 316
cler@@ 316
scri@@ 316
shops 316
bowl 316
exhi@@ 316
joe 316
airlines 315
vic 315
seeds 315
r&b 315
scored 315
processes 315
cousin 315
fine 315
lb 315
mixture 315
particle 315
des@@ 315
stand@@ 315
boat 314
d.c. 314
open@@ 314
turkish 314
1934 314
will@@ 314
tap@@ 314
phi@@ 314
napoleon 314
49 314
tia 314
bound 314
coll@@ 314
dd@@ 313
sq 313
mainland 313
w. 313
cann@@ 313
bot@@ 313
feed 313
surrounded 313
ison 313
camp@@ 313
vely 313
widespread 313
tery 313
successor 313
forc@@ 313
hercules 312
avoid 312
law@@ 312
predators 312
douglas 312
sher 312
mars 312
mun@@ 312
sum 312
acquired 312
ocr@@ 311
pac@@ 311
fan 311
czech 311
concentration 311
bears 311
website 311
pha@@ 311
tokyo 311
ult 311
and-@@ 311
laur@@ 311
deb@@ 311
existed 311
engineer 311
breaking 311
nothing 311
linked 311
wine 310
colorado 310
worn 310
bru@@ 310
avi@@ 310
nia 310
finish 310
ern@@ 310
sym@@ 310
domestic 310
understanding 310
unusual 310
sty@@ 310
editor 310
merged 310
85 310
monarch 310
andrew 310
indicate 309
pow@@ 309
rapidly 309
heads 309
tools 309
aur@@ 309
1930 309
won@@ 309
ami 309
jack@@ 309
gie 309
rich@@ 309
ist@@ 309
replace 308
predic@@ 308
address 308
opposed 308
immune 308
jur@@ 308
belief 308
ur 308
1912 308
bal 308
sharp 308
nec@@ 308
euro@@ 308
5,000 308
inal 307
angel@@ 307
ve-@@ 307
vin 307
occupation 307
produces 307
aid 307
lyn@@ 307
fired 307
metals 307
credited 307
les@@ 307
pred@@ 307
slowly 307
favorite 307
ɔ@@ 307
interior 307
jean 307
bli@@ 307
successfully 307
tip 307
achiev@@ 307
arily 307
farm@@ 307
vention 306
house@@ 306
ulated 306
life@@ 306
+@@ 306
elim@@ 306
distinguished 306
aviation 306
authorities 306
effort 306
tract 306
boundary 306
vice 306
infection 306
decades 305
beautiful 305
influential 305
flower 305
caesar 305
planes 305
ross 305
transfer 305
iro 304
opes 304
abc 304
mine 304
representative 304
ssing 304
egg 304
aria 304
mentioned 304
literary 304
ɑ@@ 304
ua 304
oo 304
traveling 304
nig@@ 303
populations 303
,00@@ 303
integr@@ 303
respec@@ 303
adap@@ 303
ation@@ 303
kim 303
audience 303
→ 303
congre@@ 303
plain 303
46 303
laid 303
flows 303
walk 303
minute 302
tto 302
ə 302
diary 302
lingu@@ 302
carni@@ 302
contained 301
survived 301
acids 301
spirit 301
roots 301
cau@@ 301
projects 301
present@@ 301
involves 301
indic@@ 301
iraq 301
attrac@@ 301
brun@@ 301
cricket 301
adams 301
fif@@ 301
approach 301
posi@@ 301
require 301
1921 301
hau@@ 301
components 301
pairs 301
b-@@ 301
tan 301
tism 301
l'@@ 300
philadelphia 300
tz 300
fts 300
vocal 300
affairs 300
evil 300
mou@@ 300
yn 300
alexand@@ 300
limit 300
application 300
dian 300
coal 300
expedition 300
parks 300
watch 300
1928 300
nest 300
-up 299
sal 299
fran@@ 299
reduce 299
factor 299
analy@@ 299
thin 299
ordinary 299
occup@@ 299
premier 299
poetry 299
translated 299
myster@@ 299
mad@@ 299
bir@@ 299
originated 299
getting 299
short-@@ 298
expressed 298
59 298
54 298
animation 298
ito 297
custom@@ 297
aer@@ 297
extra 297
abor@@ 297
vocals 297
attached 297
returning 297
ager 297
partner 297
arian 297
ign@@ 297
chose 297
ethnic 297
tch 297
eman 296
techn@@ 296
andre@@ 296
horn 296
inger 296
multi-@@ 296
norway 296
gent 296
rele@@ 296
weigh@@ 296
ate@@ 296
tennessee 296
reports 295
offer 295
bau@@ 295
af 295
ski@@ 295
1935 295
tries 295
faith 295
assigned 295
treated 295
express 295
lers 295
onto 295
prussia 295
band@@ 295
autom@@ 295
pods 295
jobs 294
sang 294
suit 294
designs 294
than@@ 294
· 294
h. 294
organism 294
elled 294
sequel 294
efforts 294
succession 293
gone 293
es-@@ 293
jan 293
promo@@ 293
samuel 293
quantum 293
anic 293
und 293
server 293
coat 293
isation 293
fas@@ 293
ions 293
bureau 292
buff@@ 292
consider 292
jet 292
cia 292
tier 292
7th 292
ured 292
invited 292
soil 292
map 292
colonial 292
sphere 292
inten@@ 292
sung 292
dered 292
patrick 292
gene@@ 292
explor@@ 291
vertebrates 291
turns 291
ez 291
soldier 291
acceler@@ 291
day@@ 291
earl 291
dean 291
vor@@ 291
62 290
decade 290
concerto 290
pay@@ 290
phosp@@ 290
geor@@ 290
1927 290
61 290
stephen 290
steve 290
rand@@ 290
chro@@ 289
ano@@ 289
values 289
sell 289
rho@@ 289
patterns 289
marke@@ 289
viewed 289
rarely 289
advis@@ 289
etary 289
portugal 289
oning 289
sisters 289
vity 289
prob@@ 289
hyper@@ 288
fted 288
dating 288
gather@@ 288
dul@@ 288
ces 288
expansion 288
helps 288
faces 288
genes 288
hunt 288
any@@ 288
christianity 288
centi@@ 288
volcanic 288
esti@@ 287
lum@@ 287
catherine 287
frequency 287
tel 287
cats 287
lil@@ 287
suff@@ 287
differ@@ 287
cus 287
ani 287
icon 287
crash 287
ont@@ 287
losing 286
thousand 286
continu@@ 286
sent@@ 286
amy 286
roo@@ 286
dominant 286
headed 286
tribu@@ 286
useful 286
pink 286
1924 286
actual 286
asses 286
architect 286
ges@@ 286
oned 286
songwriter 285
nine@@ 285
inci@@ 285
e. 285
showing 285
journal 285
stom@@ 285
officials 285
ption 285
ben 285
8th 285
hundreds 285
choir 285
stream 285
eighth 285
neuro@@ 285
sz@@ 285
maj@@ 284
tribes 284
photograph@@ 284
adding 284
storage 284
paul@@ 284
providing 284
sounds 284
tat@@ 284
ached 284
1,000 284
otherwise 284
ale@@ 284
childhood 284
tty 283
resources 283
spo@@ 283
ere 283
tone 283
f. 283
ici@@ 283
advoc@@ 283
arranged 283
selec@@ 283
igh 283
tively 283
passes 283
breeding 283
represents 282
anning 282
tre 282
accompanied 282
muhammad 282
recognition 282
rey 282
assass@@ 282
awa 282
1937 282
potassium 282
goods 282
mix 282
fantasy 282
ables 282
1925 282
disc 282
onian 282
symptoms 281
rooms 281
personality 281
message 281
proved 281
mythology 281
maintain 281
color@@ 281
im 281
parish 281
ingly 281
paint 281
bag@@ 281
seats 281
mp 281
fat@@ 281
mod@@ 281
howard 281
fore@@ 281
listen 280
comple@@ 280
vii 280
connection 280
nomin@@ 280
ste 280
,0@@ 280
knew 280
mented 280
class@@ 280
imple@@ 280
rol@@ 280
1926 280
finals 280
calls 280
guil@@ 279
ر@@ 279
yards 279
ter-@@ 279
sav@@ 279
davis 279
dings 279
gas@@ 279
tus@@ 279
rays 279
participated 279
smallest 279
proof 279
weak 279
benef@@ 279
review 279
measures 279
vier 279
isot@@ 278
accident 278
work@@ 278
frogs 278
experiments 278
ι@@ 278
magic 278
subjects 278
lose 278
cad@@ 278
governor@@ 278
miss 278
itor 278
err@@ 278
ops 278
dinosaur 278
pet 278
fam@@ 278
granted 278
ρ@@ 278
strike 277
origin@@ 277
owing 277
priest 277
meth@@ 277
continues 277
quo@@ 277
sarah 277
clothing 277
cac@@ 277
gallery 277
arrested 277
taining 277
entation 277
deer 277
ulty 277
rod@@ 277
gender 277
abo@@ 277
knight 277
ür@@ 276
bled 276
alaska 276
establishment 276
matthew 276
obtained 276
tian 276
descent 276
care@@ 276
variation 276
arc@@ 276
principle 276
asi@@ 276
connecticut 276
missouri 276
canal 276
laboratory 275
recep@@ 275
rural 275
ero 275
taiwan 275
ridge 275
cello 275
maryland 275
hamilton 275
diagno@@ 275
tea 275
ima@@ 274
leadership 274
legend 274
thur@@ 274
toward 274
acqu@@ 274
acres 274
density 274
capable 274
thick 274
variations 274
virtu@@ 274
68 274
sequ@@ 274
municipalities 274
nucleus 274
1901 274
sedi@@ 273
programming 273
contrac@@ 273
plu@@ 273
archi@@ 273
homes 273
occa@@ 273
pier@@ 273
ception 273
imag@@ 273
statement 273
gan 273
bec@@ 273
proper 273
consci@@ 273
alan 273
tiger 273
determine 273
islam 273
72 273
tax 273
iring 272
sau@@ 272
stim@@ 272
carrying 272
peri@@ 272
some@@ 272
hr@@ 272
iri@@ 272
yed 272
astic 272
suspen@@ 272
ji 272
roosevelt 272
environmental 272
scholars 272
sab@@ 272
phenom@@ 272
deman@@ 272
cabinet 272
favor 272
fon@@ 272
hms 272
usage 272
deri@@ 271
butter@@ 271
austr@@ 271
chi 271
tennis 271
favor@@ 271
requires 271
wich 271
fluor@@ 271
debuted 271
ello 271
kie 271
frog 271
× 271
factory 271
1923 271
finding 271
philosopher 271
cles 270
rings 270
zoo 270
t. 270
mexican 270
tissue 270
khan 270
1916 270
austen 270
instance 270
employed 270
munich 270
broad 270
gradually 270
seed 270
railroad 270
enced 270
peaked 270
fem@@ 270
tony 270
ram 270
berry 270
eless 270
desi@@ 270
caught 269
external 269
evening 269
ottoman 269
cry@@ 269
landing 269
hungarian 269
conducting 269
danc@@ 269
exper@@ 269
fix@@ 269
respect 269
op 269
syl@@ 269
and\/or 269
allen 268
situation 268
lane 268
snake 268
drink 268
rates 268
etr@@ 268
ev 268
ł@@ 268
powder 268
orbit@@ 268
drivers 268
twenty 268
philippines 268
83 268
copy 267
introduction 267
92 267
nitrogen 267
revolutionary 267
treat 267
meat 267
dom 267
christopher 267
democr@@ 267
prepared 267
meter 267
sett@@ 267
fing@@ 267
suggest 267
cultures 267
86 267
vill@@ 266
brand@@ 266
alice 266
wo@@ 266
happy 266
transition 266
authors 266
201@@ 266
correspon@@ 266
hip@@ 266
pine 266
ora 266
conclu@@ 266
drugs 266
alphabet 266
feel 266
chairman 266
bling 265
celebrated 265
sand 265
pum@@ 265
cultiv@@ 265
argentina 265
instruc@@ 265
lia 265
philipp@@ 265
grant 265
skull 265
arg@@ 265
adel@@ 265
lyrics 265
pitch 265
norman 265
aly@@ 265
lap@@ 265
58 265
ultimately 265
percy 265
oh 265
indu@@ 265
hawaii 265
ries 265
thin@@ 265
ames 265
viii 264
constitutional 264
zes 264
bed@@ 264
vas@@ 264
orph@@ 264
single-@@ 264
feathers 264
dium 264
abilities 264
nati@@ 264
lasted 263
productions 263
sovereign 263
plymouth 263
transferred 263
drummer 263
alabama 263
schu@@ 263
mechanics 263
background 263
sunday 263
inhabitants 263
corner 263
yi@@ 263
understand 263
home@@ 263
weapon 263
path 263
offices 263
amateur 263
horses 263
flag@@ 263
ria 263
weak@@ 262
hemisphere 262
circ@@ 262
locations 262
fundamental 262
elling 262
tape 262
powered 262
diag@@ 262
keep@@ 262
mayflower 262
tory 262
appearances 262
westminster 262
tant 262
wise 262
atically 262
regularly 262
orial 262
hong 261
academic 261
foc@@ 261
cd 261
receiving 261
700 261
altern@@ 261
jective 261
ulate 261
olic 261
10-@@ 261
dangerous 261
2,000 261
promoted 261
deaths 261
recei@@ 261
ed-@@ 261
tribe 261
equation 261
publication 261
closer 261
milli@@ 260
rolling 260
accep@@ 260
vie@@ 260
colli@@ 260
80@@ 260
entitled 260
protestant 260
lennon 260
ros@@ 260
sweet 260
sections 260
abandoned 260
69 259
mark@@ 259
perfect 259
chancellor 259
gardens 259
zen 259
confeder@@ 259
une 259
protected 259
org@@ 259
stoc@@ 259
cali@@ 259
aching 259
arnold 259
institutions 259
orthodox 259
subtropical 259
fair 258
mati@@ 258
explorer 258
199@@ 258
hope 258
mozart 258
raid 258
weakened 258
1932 258
temporary 258
poli@@ 258
dents 258
reputation 258
ush 258
sort 258
hamm@@ 257
drawing 257
apollo 257
norwegian 257
franklin 257
dublin 257
analo@@ 257
1914 257
activ@@ 257
sought 257
hood 257
chris 257
relation 257
mic 257
57 257
ni 257
croati@@ 257
artillery 256
easy 256
98 256
behavi@@ 256
pir@@ 256
kel@@ 256
polar 256
moder@@ 256
magnitude 256
herself 256
speaker 256
dancing 256
determin@@ 256
offers 256
regi@@ 256
chair 255
leop@@ 255
trial 255
converted 255
survive 255
narrow 255
fluid 255
modified 255
aware 254
toronto 254
observ@@ 254
commissioned 254
nor 254
aming 254
hall@@ 254
exactly 254
ske@@ 254
signature 254
chel@@ 254
ο@@ 254
thou@@ 254
faced 254
leads 254
iden 254
choose 254
99 253
modi@@ 253
principles 253
diff@@ 253
muslims 253
nis 253
eating 253
ecu@@ 253
a.@@ 253
ells 253
duchy 253
gates 253
rid@@ 253
experienced 253
depen@@ 253
reve@@ 253
yam@@ 253
mike 253
ij@@ 252
dow@@ 252
threat 252
mechanism 252
tiny 252
scenes 252
municipality 252
broo@@ 252
1910 252
globe 252
galaxies 252
speakers 252
hydr@@ 252
expres@@ 252
fab@@ 252
duction 252
amed 252
adop@@ 252
guinea 252
holiday 252
planning 252
jam@@ 251
snow@@ 251
aga 251
fresh 251
eo 251
anger 251
organs 251
warm@@ 251
maintained 251
diet 251
task 251
gordon 251
dan 251
viruses 251
conservation 251
bron@@ 251
warning 251
fishing 251
consider@@ 251
louise 250
ona 250
really 250
ranging 250
shorter 250
span 250
minerals 250
sculp@@ 250
rhythm 250
bry@@ 250
earth@@ 250
1931 250
yl 250
pure 250
sha 250
slo@@ 250
christians 250
supplies 250
diseases 250
trip 250
prec@@ 250
institution 250
inch 250
tra 249
categories 249
daniel 249
wild@@ 249
dream 249
ared 249
eldest 249
cryst@@ 249
pus 249
saur@@ 249
um-@@ 249
eli@@ 249
generated 249
ana@@ 249
wind@@ 249
infec@@ 249
one@@ 249
advantage 249
branches 249
virgin 249
p. 249
sors 249
agre@@ 249
household 248
swiss 248
representing 248
molecule 248
ao 248
six@@ 248
sad@@ 248
ador 248
1930s 248
wan 248
carl 248
woo@@ 248
shut@@ 248
arti@@ 248
susp@@ 248
pain@@ 248
links 248
tivity 248
tale 248
una 248
journey 248
buc@@ 248
adi@@ 248
parent 248
eco@@ 248
prefecture 248
real@@ 248
rising 248
patri@@ 248
ough@@ 248
phal@@ 248
hypothesis 248
gold@@ 248
answer 247
wire 247
louisiana 247
regim@@ 247
cial 247
target 247
manner 247
chen@@ 247
sible 247
free@@ 247
4,@@ 247
10,000 247
gren@@ 247
bia 247
pokémon 247
muscle 247
cook 247
tables 247
exhibition 247
fit 246
ols 246
su 246
survey 246
broad@@ 246
yard 246
safe 246
noble 246
vo 246
stored 246
docum@@ 246
machines 246
pianist 246
71 246
mineral 246
looks 246
dent@@ 245
hop 245
atro@@ 245
clay 245
balls 245
ʊ@@ 245
plot 245
atus 245
tioning 245
hired 245
proto@@ 245
carter 245
preserved 245
azerbaijan 245
deputy 245
λ@@ 245
oral 245
rad 245
bet 245
standards 245
mach@@ 245
vary 244
stur@@ 244
bread 244
premiered 244
tram@@ 244
dering 244
tank 244
hang@@ 244
anism 244
tang@@ 244
tow@@ 244
bloo@@ 244
shooting 244
clean@@ 244
cost@@ 244
kil@@ 244
geon 244
rocket 244
maker 243
rainfall 243
kas@@ 243
liked 243
78 243
tend 243
posse@@ 243
pit 243
ministry 243
violence 243
moment 243
rup@@ 243
estate 243
missi@@ 243
senator 243
grandfather 243
send 242
econom@@ 242
eding 242
layers 242
entrance 242
colum@@ 242
accomp@@ 242
mar 242
nutri@@ 242
wes@@ 242
sever@@ 242
hypo@@ 242
donald 242
athens 242
tag@@ 242
license 242
kl@@ 242
survivor 242
normandy 241
firm 241
com 241
armies 241
committed 241
proces@@ 241
budd@@ 241
courts 241
palest@@ 241
meets 241
wwf 241
expensive 241
ces@@ 241
tos 241
russell 241
corpor@@ 241
а 241
vey 240
format 240
communications 240
literally 240
mamm@@ 240
boar@@ 240
flash 240
fc 240
thr@@ 240
cylin@@ 240
philli@@ 240
mill 240
ulu 240
educated 240
ontario 240
anth@@ 240
add 240
worms 240
screen@@ 240
gib@@ 240
beethoven 240
ɡ@@ 240
desc@@ 240
kur@@ 239
codes 239
drums 239
shir@@ 239
centers 239
bonds 239
southeastern 239
terminal 239
num@@ 239
gases 239
alty 239
symme@@ 239
transm@@ 239
luke 239
birthday 239
platform 239
faster 239
brief 239
1908 239
osis 238
believ@@ 238
roger 238
ares 238
thers 238
thi@@ 238
moore 238
wolf 238
greatly 238
queensland 238
sso@@ 238
crossed 238
120 238
increasingly 238
defen@@ 238
gli@@ 238
ital 238
distributed 238
exists 238
diffic@@ 238
cardinal 238
identi@@ 238
wisconsin 238
colle@@ 238
grounds 238
bud@@ 237
ñ@@ 237
engaged 237
mature 237
swimming 237
τ@@ 237
disk 237
dominican 237
losses 237
clark 237
compos@@ 237
eisen@@ 237
pan 237
lifetime 237
pati@@ 237
criminal 237
consul@@ 237
heavily 237
distinctive 237
cock@@ 237
kon@@ 236
skills 236
adam 236
alization 236
challenge 236
indonesia 236
terror@@ 236
theories 236
interview 236
charges 236
rever@@ 236
bangladesh 236
manhattan 236
johann 236
contest 236
neck 236
transl@@ 236
colleges 236
talent 236
plus 236
primitive 236
crisis 236
briefly 236
finland 236
delta 236
well@@ 236
heating 235
buil@@ 235
load 235
tains 235
newton 235
onist 235
decre@@ 235
price 235
beliefs 235
south@@ 235
clau@@ 235
deep@@ 235
petersburg 235
ranges 235
maur@@ 235
journalist 235
negoti@@ 235
scription 235
welsh 235
izing 235
63 235
stating 235
inist 235
kam@@ 234
spiritual 234
expression 234
pearl 234
agents 234
mentary 234
popul@@ 234
throw 234
found@@ 234
marsh@@ 234
án 234
cerem@@ 234
prohi@@ 234
dragon 234
volunte@@ 234
chocolate 234
carbonate 234
rifle 234
und@@ 234
81 234
fia 233
derby 233
len 233
residents 233
comics 233
ink 233
bruce 233
gne 233
ε@@ 233
nomination 233
collected 233
mccartney 233
eric 233
yer 233
sky@@ 233
file 233
norfolk 233
public@@ 233
jas@@ 233
driving 233
ing-@@ 233
benjamin 233
73 233
peoples 233
89 233
infl@@ 232
ae@@ 232
illes 232
grace 232
olithic 232
ves@@ 232
adventures 232
mouse 232
yor@@ 232
valry 232
igh@@ 232
ig 232
iny 232
villages 232
unt 232
ony@@ 232
jerusalem 232
purchased 232
sevent@@ 232
goddess 232
distur@@ 232
tool 232
five-@@ 232
cust@@ 232
compositions 232
substance 231
steps 231
96 231
clinton 231
holes 231
dé@@ 231
plas@@ 231
uefa 231
ال@@ 231
significantly 231
arabia 231
ights 231
aws 231
swit@@ 231
cretaceous 231
rel 231
aled 231
establish 231
airbus 231
settlers 231
voc@@ 230
otto 230
15th 230
observations 230
wn 230
injury 230
cave 230
belgian 230
sample 230
mail 230
neighborhood 230
wrestlemania 230
manufac@@ 230
lots 229
ose 229
heavyweight 229
keeping 229
wid@@ 229
coins 229
thum@@ 229
gravity 229
refu@@ 229
partly 229
processing 229
ferdinand 229
ille 229
nh@@ 229
vast 229
indiana 229
mg 229
chronic@@ 229
akes 229
walking 229
cover@@ 229
deno@@ 229
metre 229
billy 229
hence 229
gothic 229
vibr@@ 228
bright 228
vertical 228
balance 228
ʃ@@ 228
1911 228
missing 228
experiment 228
august@@ 228
strip 228
cub@@ 228
consum@@ 228
saturday 228
ita 228
grass 228
consecutive 228
centre 228
s\/@@ 228
sequences 228
poems 227
civil@@ 227
agree 227
goo@@ 227
ux 227
votes 227
alcohol 227
mounted 227
ques 227
masses 227
anatom@@ 227
conduc@@ 227
lawyer 227
awar@@ 227
boards 227
improve 227
ank 227
first-@@ 227
mainstream 227
88 227
philosoph@@ 227
narr@@ 227
titude 226
resigned 226
250 226
touch@@ 226
stret@@ 226
ي@@ 226
regiment 226
astro@@ 226
lux@@ 226
roun@@ 226
romania 226
maine 226
event@@ 226
tales 226
bat 226
illness 226
acre 226
ashed 226
joining 226
apolis 226
ior 226
isol@@ 226
visitors 226
afterwards 226
teach 226
gover@@ 226
94 225
ilia 225
roll@@ 225
puerto 225
cos@@ 225
т@@ 225
σ@@ 225
depth 225
confederate 225
trading 225
commerci@@ 225
explain 225
thom@@ 225
designer 225
residence 225
excep@@ 225
hot@@ 225
arrival 225
inau@@ 225
ures 225
nur@@ 225
god@@ 225
simon 225
patients 225
inc. 225
enemies 224
neu@@ 224
chap@@ 224
wants 224
lock@@ 224
inations 224
historians 224
cy 224
thermo@@ 224
accounts 224
stock@@ 224
eral 224
dominated 224
crossing 224
bacter@@ 224
sees 224
argued 224
singers 224
kov 224
82 224
billi@@ 224
persons 224
promote 224
log@@ 224
sie 224
cha@@ 224
classification 223
edinburgh 223
routes 223
aspects 223
rush 223
drives 223
demand 223
publishing 223
gary 223
trust 223
indo-@@ 223
tric@@ 223
output 223
translation 223
alive 223
turning 223
iling 223
gradu@@ 223
harvard 223
agon 223
sentence 223
reig@@ 223
administr@@ 223
companion 223
nose 223
iowa 223
lain 223
phoenix 223
immigr@@ 223
pts 223
adventure 223
characteristic 223
kle@@ 223
offensive 223
homo@@ 222
smackdown 222
jim 222
costa 222
scor@@ 222
institu@@ 222
plates 222
saxony 222
guide 222
estim@@ 222
wic@@ 222
lap 222
absor@@ 222
brid@@ 222
remove 222
serge@@ 222
coordin@@ 222
ened 222
minnesota 222
tric 222
telephone 222
franchise 222
sumed 222
wooden 221
telescope 221
liz@@ 221
destroy 221
organiz@@ 221
habit@@ 221
boun@@ 221
1905 221
them@@ 221
ure@@ 221
torate 221
ny@@ 221
component 221
asts 221
raise 221
aggre@@ 221
atic@@ 221
flor@@ 221
finger 221
strongly 221
stick 221
76 221
questions 221
84 221
induc@@ 220
nova 220
vorous 220
moun@@ 220
owed 220
counter 220
ologi@@ 220
lift 220
involving 220
request 220
ef 220
elder 220
1915 220
velocity 220
ous@@ 220
nat@@ 220
electromagnetic 220
batman 220
gated 220
mitted 220
armenia 220
dimen@@ 220
worship 220
violent 220
cycl@@ 220
fat 220
74 220
andy 220
cole 220
yellow@@ 220
celtic 220
bringing 219
birmingham 219
nickname 219
floo@@ 219
cs 219
replacement 219
aph@@ 219
purple 219
warri@@ 219
breed 219
jose@@ 219
rear 219
drag@@ 219
assem@@ 219
austin 219
consu@@ 219
clothes 219
prop@@ 219
illegal 219
nin@@ 219
adver@@ 219
60@@ 219
after@@ 219
driven 219
beat@@ 219
avenue 219
ب@@ 219
ied 219
improved 219
extension 219
sam 218
midd@@ 218
sax@@ 218
zeus 218
fiel@@ 218
fifteen 218
eived 218
contra@@ 218
fairy 218
delivered 218
stered 218
notic@@ 218
emplo@@ 218
journ@@ 218
emerged 218
origins 218
manufactur@@ 218
kö@@ 218
has@@ 218
harrison 218
town@@ 218
bars 218
wiki@@ 218
alleg@@ 217
lessons 217
bene@@ 217
reco@@ 217
by-@@ 217
blind 217
closest 217
streets 217
coalition 217
anthony 217
nicholas 217
asis 217
nau@@ 217
transportation 217
shells 217
wii 217
shoo@@ 217
sleep 217
arizona 217
1\/@@ 217
craft 217
appearing 217
ν@@ 217
ninth 217
ume 216
rival 216
unk 216
itted 216
incorpor@@ 216
prisoners 216
yu@@ 216
6,@@ 216
ury 216
ference 216
ens@@ 216
deal@@ 216
strait 216
platinum 216
complic@@ 216
stam@@ 216
cir@@ 216
judge 216
bic@@ 216
kom@@ 216
print 216
threatened 215
danish 215
cec@@ 215
ax 215
cable 215
historian 215
sri 215
so-called 215
goal@@ 215
spots 215
bever@@ 215
amino 215
exposed 215
petro@@ 215
stem 215
det@@ 215
licen@@ 215
awn 215
ura 215
struggle 215
coffee 215
hart 215
proph@@ 215
junction 215
begun 215
77 215
a3@@ 215
essential 215
looked 215
fear 215
weekly 214
waste 214
pollu@@ 214
inn 214
ire@@ 214
stop@@ 214
prayer 214
reality 214
1913 214
lag@@ 214
slaves 214
touch 214
chop@@ 214
aya 214
mosque 214
camera 214
battles 214
chen 214
friedrich 214
hurricanes 214
strongest 214
150@@ 214
specialized 214
critic 214
caf@@ 214
sacred 214
1903 214
script 214
saxe-@@ 214
income 214
gro 214
mim@@ 213
neigh@@ 213
ser 213
tary 213
tenth 213
alties 213
v. 213
² 213
ato@@ 213
rati@@ 213
thinking 213
circulation 213
chr@@ 213
hn 213
ido@@ 213
root 213
ight 213
statistical 213
dang@@ 213
conc@@ 213
genetics 213
practical 213
ecting 213
3d 213
symbols 213
feeding 213
saudi 213
fred 213
aying 213
thirty 213
depar@@ 213
в@@ 213
disaster 212
93 212
alls 212
eled 212
victor 212
present-day 212
cattle 212
defensive 212
drop 212
fires 212
isi@@ 212
fications 212
reef 212
zy 212
sizes 212
fur 212
calling 212
zoic 212
immigrants 212
clean 212
cass@@ 212
bigger 212
dead@@ 212
extinction 212
identical 212
lightning 212
explained 211
genera 211
iti 211
carri@@ 211
was@@ 211
abil@@ 211
gle 211
wounded 211
israeli 211
heated 211
syria 211
approved 211
simil@@ 211
kill@@ 211
pers 211
ually 211
canton 211
assault 211
rating 211
burned 211
continuing 211
jar@@ 211
insi@@ 211
excell@@ 211
regarding 211
master@@ 211
rio 211
11@@ 210
defeating 210
vocalist 210
sco@@ 210
emmy 210
marg@@ 210
zation 210
ila 210
confi@@ 210
addre@@ 210
و@@ 210
argu@@ 210
grou@@ 210
description 210
ein@@ 210
bill@@ 210
corresponding 210
texts 210
gel 210
rar@@ 210
networks 210
contributed 209
angel 209
clock 209
testament 209
artistic 209
adaptation 209
belt 209
signals 209
rangers 209
familiar 209
lithu@@ 209
-in-@@ 209
lowest 209
struck 209
acti@@ 209
pierre 209
eria 209
yan@@ 209
commun@@ 209
pets 209
infin@@ 209
collabor@@ 209
conduct 209
executed 209
chapter 209
sessions 209
1902 209
fall@@ 209
heir 209
heim 209
electoral 209
pois@@ 208
ppers 208
jurassic 208
manag@@ 208
prussian 208
onau@@ 208
venice 208
line@@ 208
neither 208
kol@@ 208
cena 208
orbital 208
operate 208
linear 208
opportunity 208
too@@ 208
every@@ 208
person@@ 208
malay@@ 208
surve@@ 208
opponent 208
zen@@ 208
glu@@ 208
antonio 208
hearing 208
automatic 208
accor@@ 208
orchestral 208
violet 208
promise 208
best-selling 207
hidden 207
facility 207
exact 207
ection 207
install@@ 207
ammon@@ 207
bank@@ 207
cz@@ 207
eu 207
discus@@ 207
variable 207
sha@@ 207
eaten 207
dest 207
sperm 207
relatives 207
medals 207
affect 207
equi@@ 207
iss 207
somewhat 207
ores 207
che 207
expan@@ 207
require@@ 207
oklahoma 207
rober@@ 207
bush@@ 207
nbc 207
show@@ 207
79 207
py 207
pm 207
exce@@ 206
easier 206
collapse 206
spin 206
theoretical 206
tting 206
burning 206
hugo 206
progressive 206
judic@@ 206
stuart 206
deriv@@ 206
bald 206
anniversary 206
foods 206
isolated 206
cash 206
markets 206
scientist 206
context 206
manuscri@@ 206
att 205
angu@@ 205
scop@@ 205
mec@@ 205
victor@@ 205
incident 205
physiology 205
documentary 205
spe@@ 205
fau@@ 205
bam@@ 205
alber@@ 205
anarch@@ 205
singer-songwriter 205
fried 205
outs 205
zer@@ 205
dances 205
natur@@ 205
persi@@ 205
usher 205
inland 205
tious 205
console 205
carrier 205
ل@@ 204
beauty 204
ante 204
chur@@ 204
educational 204
cited 204
u-@@ 204
transmission 204
ée 204
achieve 204
1\/2 204
predecess@@ 204
romans 204
olog@@ 204
none 204
anthem 204
design@@ 204
shap@@ 204
ark 204
daughters 204
recogn@@ 204
rem@@ 204
phar@@ 203
substitu@@ 203
geological 203
ddy 203
xon 203
dc 203
traditions 203
counc@@ 203
ruler 203
skeleton 203
een 203
trum@@ 203
voyage 203
contestant 203
finishing 203
consisted 203
gospel 203
worl@@ 203
lip@@ 203
bachelor 203
bees 203
toxic 203
bern@@ 203
900 203
fis@@ 203
libr@@ 203
revi@@ 203
leaf 203
97 202
fix 202
bell@@ 202
chile 202
sk 202
sna@@ 202
plant@@ 202
aki 202
ange 202
audi@@ 202
veter@@ 202
inqu@@ 202
ida 202
arrangement 202
pec@@ 202
cleveland 202
neutral 202
keyboard 202
asks 202
argument 202
dit@@ 202
continuous 202
lawrence 202
esse 202
dancer 202
whe@@ 202
reform 202
beer 202
hydroxide 202
ices 202
writings 201
ati 201
similarly 201
š@@ 201
increases 201
relationships 201
cogn@@ 201
aire 201
insul@@ 201
camps 201
tionary 201
overseas 201
millions 201
competitions 201
sleep@@ 201
commemor@@ 201
ool 201
downtown 201
extr@@ 201
737-@@ 201
prepar@@ 201
3,000 201
ab 201
cool 201
zu@@ 201
of-@@ 201
spl@@ 201
passage 201
author@@ 201
ray@@ 201
slave 201
bble 201
control@@ 200
apparent 200
snakes 200
mice 200
light-@@ 200
substances 200
walker 200
oz 200
bai 200
arch 200
1895 200
jump 200
ull 200
iness 200
springs 200
170@@ 200
biography 200
unesco 200
ree 200
bernard 200
wavel@@ 200
cathol@@ 200
tanks 200
east@@ 200
siber@@ 200
consol@@ 200
hip 200
domain 200
suburbs 200
pleas@@ 200
ch-@@ 199
quarter 199
binary 199
prece@@ 199
thirteen 199
agricultural 199
housing 199
agriculture 199
controversial 199
opo@@ 199
reed 199
grams 199
minim@@ 199
aero@@ 199
reptiles 199
tyr@@ 199
rical 199
g. 199
focused 199
democracy 199
bridges 199
tox@@ 199
warner 199
progress 199
happens 199
number@@ 199
pie 199
sue 199
1904 199
hunter 199
outstanding 199
ingo 199
foun@@ 199
alle@@ 198
concrete 198
rolled 198
tedly 198
posed 198
aa 198
accept 198
fighter 198
larvae 198
bros. 198
fever 198
non 198
retirement 198
poin@@ 198
ride 198
oos 198
lights 198
purchase 198
pain 198
shakespeare 198
anglo-saxon 198
victorian 198
metal@@ 198
croco@@ 198
sig@@ 198
domes@@ 198
encies 198
l. 198
fill 198
toy 198
rat 198
fault 198
5,@@ 198
ô@@ 198
microsoft 198
ince 198
barn@@ 197
locks 197
jected 197
quarter@@ 197
bea@@ 197
campaig@@ 197
arena 197
ς 197
wearing 197
mining 197
chim@@ 197
esc@@ 197
venue 197
parliamentary 197
releases 197
insurance 197
rats 197
1906 197
debate 197
woods 196
controversy 196
ading 196
vis 196
&@@ 196
beau@@ 196
mers 196
ems 196
enters 196
nesses 196
montreal 196
abraham 196
assumed 196
ahead 196
apo@@ 196
pc 196
suitable 196
ulf 196
hawai@@ 196
sap@@ 196
genres 196
chester 196
tah 196
winners 196
gabri@@ 196
righ@@ 196
mw 196
rell 196
communic@@ 196
profit 196
vian 196
pass@@ 196
mono@@ 196
nasa 196
ague 196
gau@@ 196
charter 195
miller 195
logic 195
mum@@ 195
madison 195
divine 195
mechan@@ 195
judges 195
monastery 195
preci@@ 195
steam 195
mantle 195
researchers 195
experimental 195
swi@@ 195
phys@@ 195
strategy 195
exception 195
geno@@ 195
dramatic 195
fitz@@ 195
max@@ 195
tender 195
manuel 195
injured 195
nicknamed 195
persu@@ 195
rub@@ 195
filmed 195
carb@@ 195
buffalo 195
concluded 195
yugosla@@ 194
inated 194
selen@@ 194
1920s 194
achi@@ 194
archbishop 194
tied 194
κ@@ 194
wet 194
good@@ 194
nebu@@ 194
slavery 194
experiences 194
escaped 194
reacts 194
neighbor@@ 194
exposure 194
ext@@ 194
deck 194
testing 194
shift 194
orton 194
marath@@ 194
chron@@ 194
portions 194
1907 194
friday 194
anese 194
mean@@ 194
doors 193
extent 193
printing 193
bunde@@ 193
potter 193
thailand 193
cere@@ 193
recognize 193
bra 193
no-@@ 193
identify 193
crystal 193
happen 193
sheep 193
picked 193
rep@@ 193
destruction 193
stol 193
lom@@ 193
wedding 193
grave 193
gel@@ 193
ʁ@@ 193
lesser 193
pod 193
nba 193
encomp@@ 193
fies 193
tallest 192
funeral 192
ratio 192
bly 192
suffering 192
sley 192
conserv@@ 192
documents 192
promotion 192
1896 192
wick 192
onally 192
diversity 192
homo 192
progre@@ 192
minority 192
tempor@@ 192
dwarf 192
restric@@ 192
sci@@ 192
quebec 192
landed 192
brig@@ 192
martial 192
jimmy 192
controls 192
voltage 192
10th 192
gom@@ 192
franç@@ 192
jim@@ 192
returns 192
μ@@ 192
ough 192
contributions 192
ukraine 192
ün@@ 192
1.5 192
list@@ 191
rin@@ 191
commons 191
wells 191
hero@@ 191
loo@@ 191
theaters 191
falling 191
scope 191
scholarship 191
messi@@ 191
hans 191
hisp@@ 191
mani@@ 191
document 191
charlotte 191
prague 191
precip@@ 191
1890 191
pom@@ 191
understood 191
travels 191
jus@@ 191
boundaries 191
wrest@@ 191
pilgri@@ 191
effici@@ 191
poc@@ 191
cep@@ 191
seas@@ 191
eye@@ 191
eagle 191
anderson 191
xx@@ 191
duty 191
necess@@ 191
businesses 191
gly@@ 191
hosts 191
190@@ 190
costs 190
atives 190
apost@@ 190
diverse 190
northwestern 190
rocky 190
ologies 190
rated 190
100,000 190
civilization 190
poles 190
1000 190
belong 190
boats 190
dule 190
ided 190
nan@@ 190
franz 190
satis@@ 190
mo 190
kha@@ 190
employment 190
spectrum 189
ras@@ 189
surgery 189
policies 189
gerald 189
198@@ 189
ital@@ 189
considerable 189
kra@@ 189
rejected 189
acles 189
spr@@ 189
competing 189
lists 189
cataly@@ 189
hein@@ 189
confused 189
euc@@ 189
jo 189
declaration 189
-general 189
seems 189
bara 189
nick 189
banned 189
chem@@ 188
entering 188
emed 188
geoffrey 188
dynamics 188
rhin@@ 188
details 188
nem@@ 188
tourist 188
m-@@ 188
conventional 188
gens 188
masters 188
yorkshire 188
med 188
saturn 188
pointed 188
est-@@ 188
reali@@ 188
spend 188
mrs. 188
penis 188
effectively 188
harold 188
plural 188
doctrine 188
morgan 188
best-known 188
wea@@ 188
ential 188
margaret 188
zy@@ 187
bomb 187
try@@ 187
pter@@ 187
pression 187
sauce 187
designation 187
leg 187
blocks 187
barrier 187
athle@@ 187
ograph@@ 187
perc@@ 187
therap@@ 187
utc 187
vector 187
reagan 187
dor 187
ood 187
sug@@ 187
stood 187
nings 187
♭ 187
hammer@@ 187
sin 187
ogy 187
resolution 187
mé@@ 187
sulfur 187
night@@ 187
resort 187
duo 187
brick 187
rison 187
presidency 186
collections 186
fifa 186
wilhelm 186
agues 186
broadway 186
morph@@ 186
owners 186
dependent 186
devil 186
decline 186
eur 186
sle@@ 186
slovakia 186
arity 186
cer 186
lanc@@ 186
answ@@ 186
30-@@ 186
7,@@ 186
kilometers 186
boul@@ 186
josé 186
four@@ 186
dram@@ 186
at-@@ 186
solutions 186
statue 186
madrid 186
roe 186
gir@@ 186
ural 186
distribu@@ 186
wald 186
vor 185
sixteen 185
pro 185
tune 185
marshall 185
pick 185
brooklyn 185
baroque 185
riding 185
comparison 185
mium 185
sale 185
finance 185
mud 185
enge 185
vag@@ 185
gym@@ 185
curr@@ 185
brac@@ 185
reaches 185
intensity 185
gent@@ 185
buy 185
wish 185
ales 185
kentucky 185
everything 185
tamil 185
hybri@@ 185
1909 185
nas 185
astronomy 185
sculpture 185
kilo@@ 185
ˌ@@ 184
oregon 184
condi@@ 184
salts 184
missions 184
encoura@@ 184
avo@@ 184
naturally 184
giovanni 184
isms 184
vessels 184
window 184
cycles 184
quad@@ 184
loy@@ 184
flights 184
univers@@ 184
bassist 184
rang@@ 184
cc@@ 184
ho 184
distances 184
utes 184
ench 184
pric@@ 184
pin 184
qualified 184
kent 184
gram 184
alities 184
isle 184
sloven@@ 184
terrestrial 184
1865 184
sufficient 184
struc@@ 184
carries 184
currency 183
occasions 183
manufacturing 183
flood 183
ug@@ 183
wore 183
warfare 183
recru@@ 183
govern@@ 183
tiv@@ 183
now@@ 183
scheduled 183
recor@@ 183
tongue 183
mess@@ 183
disorders 183
rachel 183
groun@@ 183
ois 183
hara 183
great-@@ 183
partially 183
mam@@ 183
signing 183
semi@@ 183
teachers 183
burns 183
tie 183
attracted 183
mates 183
inate 183
legi@@ 183
tural 183
wash@@ 183
helping 183
aps 183
flew 183
deut@@ 183
conventi@@ 182
geneva 182
rico 182
creative 182
trig@@ 182
etta 182
thunder@@ 182
emi 182
shares 182
eliminated 182
fill@@ 182
geometry 182
restored 182
themes 182
adverti@@ 182
factor@@ 182
voices 182
liqu@@ 182
responsibility 182
spot@@ 182
system@@ 182
usual 182
detroit 182
trio 182
propos@@ 182
not@@ 182
southwestern 182
courses 182
fertili@@ 182
characterized 182
albat@@ 182
naples 182
criticism 181
sati@@ 181
investigation 181
jefferson 181
decay 181
reproduction 181
habitat 181
tained 181
mongol@@ 181
enjoyed 181
horus 181
sanc@@ 181
impossible 181
third-@@ 181
spring@@ 181
simpson 181
arsenic 181
sword 181
chamber@@ 181
20-@@ 181
ú@@ 181
sudan 181
cluster 181
vent 181
remote 181
kangar@@ 181
barium 181
kre@@ 181
lasting 181
ensis 181
liter@@ 181
dub@@ 181
intense 181
ingredi@@ 181
candidates 181
gaz@@ 181
kaz@@ 180
pregnancy 180
phic 180
anced 180
meteor@@ 180
mahler 180
jection 180
frame 180
phy 180
tain@@ 180
ele 180
α 180
abstr@@ 180
zar@@ 180
grandson 180
13th 180
english-@@ 180
replacing 180
scoring 180
playstation 180
facts 180
peru 180
chromosomes 180
legisl@@ 180
wing@@ 180
fourteen 180
hate 180
alians 180
carol@@ 180
libre@@ 180
generate 180
contain@@ 180
iner 180
stroke 180
column 180
palae@@ 179
brazilian 179
lanka 179
enh@@ 179
pregn@@ 179
juan 179
touring 179
germanic 179
aver@@ 179
horror 179
recre@@ 179
metr@@ 179
tici@@ 179
vitam@@ 179
sche 179
aquatic 179
dense 179
00@@ 179
efficient 179
196@@ 179
matters 179
cha 179
matt 179
certain@@ 179
chie@@ 179
pup@@ 179
crust 179
dissolved 179
po 179
engineers 179
integrated 179
stev@@ 179
14th 179
toured 179
admiral 178
dental 178
ocene 178
nov@@ 178
measurement 178
anything 178
phen@@ 178
stronger 178
nish 178
audio 178
ced 178
1898 178
regar@@ 178
algorith@@ 178
jin@@ 178
crops 178
90@@ 178
facing 178
lions 178
olympi@@ 178
videos 178
varies 178
descendants 178
defend 178
loved 178
repeated 178
ico 178
viewers 178
concerns 178
vancouver 177
guar@@ 177
ced@@ 177
membrane 177
1940s 177
nephew 177
plasma 177
guid@@ 177
instrumental 177
f1 177
thermal 177
algae 177
alpha 177
lind@@ 177
ecw 177
distinguish 177
psychiat@@ 177
rescue 177
lob@@ 177
constell@@ 177
bavaria 177
imprison@@ 177
tch@@ 177
ranking 177
guards 177
doctors 177
fou@@ 177
autonomous 177
apparently 177
hus@@ 177
cyclones 177
kim@@ 177
fting 177
invaded 177
extra@@ 177
worst 177
witch 177
conquest 177
scales 177
seri@@ 176
bobby 176
foo@@ 176
invest@@ 176
broadcasting 176
immediate 176
ion@@ 176
ester@@ 176
lef@@ 176
introduc@@ 176
kri@@ 176
foster 176
americas 176
cotton 176
gp 176
membership 176
arc 176
dynamic 176
supporters 176
seek 176
ook 176
supports 176
connect 176
remembered 176
random 176
interaction 176
nevertheless 176
pepper 176
macro@@ 176
inian 176
baker 176
sulfate 176
turing 176
pot 176
h2@@ 176
attend 176
idi@@ 176
wealthy 176
northeastern 176
ranks 176
nitrate 175
elephant 175
teries 175
harris 175
johnny 175
giants 175
smooth 175
ingen 175
preferred 175
duties 175
pson 175
figur@@ 175
1897 175
bited 175
activist 175
explan@@ 175
enn@@ 175
vla@@ 175
relati@@ 175
muscles 175
k. 175
sulfide 175
attributed 175
collap@@ 175
execu@@ 175
avatar 175
wallace 175
eukaryo@@ 175
ա@@ 175
ن@@ 175
leeds 175
forec@@ 175
ī@@ 175
preced@@ 174
flanders 174
194@@ 174
battalion 174
handle 174
ern 174
ć 174
əˈ@@ 174
scheme 174
ready 174
.5 174
sole 174
credit 174
flora 174
milan 174
isa 174
mart@@ 174
beng@@ 174
1893 174
transit 174
intermediate 174
tests 174
nelson 174
catch 174
rhine 174
tire 174
rubber 174
missed 174
premiere 174
transi@@ 174
chang@@ 174
evacu@@ 174
us$ 174
abuse 174
shallow 174
cooking 173
kashmir 173
rebellion 173
admini@@ 173
-based 173
bengal 173
appropriate 173
truth 173
romance 173
dust 173
f-@@ 173
deser@@ 173
leng@@ 173
producers 173
kurt 173
hell 173
citizen 173
seeing 173
cott 173
herbi@@ 173
ota 173
vac@@ 173
ead 173
diego 173
pler 173
honorary 173
alban@@ 173
intellectual 173
graham 173
innov@@ 173
pher@@ 173
merchant 173
grows 173
exclusively 173
traits 173
hosp@@ 173
ruling 173
cum@@ 172
flooding 172
pren@@ 172
turner 172
abbreviated 172
cav@@ 172
dress 172
pengu@@ 172
atively 172
mau@@ 172
matrix 172
gang@@ 172
edo 172
specimens 172
chore@@ 172
gustav 172
jerry 172
update 172
displayed 172
silent 172
heaven 172
shoul@@ 172
ye 172
grey 172
.s. 172
hudson 172
phr@@ 172
self 172
landscape 172
kevin 172
rugby 172
cuc@@ 172
solve 172
path@@ 172
edmund 172
í 172
sas@@ 172
subsi@@ 172
cbs 172
dus 172
anny 172
aar@@ 172
ă@@ 171
sb@@ 171
emen 171
dome 171
hetero@@ 171
metric 171
double-@@ 171
.a. 171
ema 171
productive 171
fair@@ 171
atol@@ 171
utili@@ 171
installed 171
info 171
sonic 171
grammar 171
minimum 171
sch 171
ticated 171
nut 171
organised 171
stad@@ 171
hindu 171
concepts 170
dir@@ 170
pulled 170
civilian 170
associ@@ 170
appointment 170
interests 170
trinity 170
akh 170
50,000 170
wider 170
benedic@@ 170
galil@@ 170
xy 170
saints 170
statistics 170
dick 170
weekend 170
attor@@ 170
paras@@ 170
197@@ 170
lime@@ 170
bourg 170
industries 170
rail@@ 170
venus 170
cross-@@ 170
autumn 170
encouraged 170
instructions 170
athletics 170
uments 170
consist 170
д@@ 170
ɨ@@ 169
net@@ 169
dispute 169
periodic 169
isaac 169
wag@@ 169
legislative 169
atlanta 169
saved 169
vacc@@ 169
shear 169
voting 169
sieg@@ 169
surrender 169
pounds 169
pur 169
beg@@ 169
lords 169
jama@@ 169
moral 169
guests 169
inhabited 169
artificial 169
physicist 169
seal 169
salzburg 169
4,000 169
aster 169
jean-@@ 169
zo 169
donkey 169
exercise 169
bath 169
eded 169
influences 169
optical 169
electron@@ 169
cult 168
occurring 168
drafted 168
retained 168
budget 168
chorus 168
index 168
dissol@@ 168
trin@@ 168
followers 168
tsun@@ 168
copyright 168
gö@@ 168
exo@@ 168
julian 168
herbert 168
chell 168
reci@@ 168
ort 168
priv@@ 168
upgraded 168
unless 168
:00 168
enab@@ 168
convection 168
glands 168
intensi@@ 168
rounds 168
predicted 168
synthetic 168
perf@@ 168
mathematician 168
friendship 168
shortened 168
calvin 168
generations 168
propag@@ 168
contestants 167
glas@@ 167
nell 167
rica 167
iv@@ 167
crimes 167
ei 167
thrown 167
pushed 167
detailed 167
rulers 167
settlements 167
lington 167
mad 167
nel 167
accoun@@ 167
enter@@ 167
neptune 167
frequent 167
dollar 167
impression@@ 167
part@@ 167
ocy@@ 167
ancestor 167
cardin@@ 167
octa@@ 167
plying 167
737 167
ratt@@ 167
1889 167
volumes 167
buddhi@@ 166
quartet 166
byzantine 166
join@@ 166
ensem@@ 166
recipi@@ 166
cream 166
african-american 166
س@@ 166
ministers 166
opinion 166
regard 166
aka 166
secure 166
beetles 166
pursu@@ 166
fortune 166
automob@@ 166
denomin@@ 166
northum@@ 166
ired 166
accused 166
ots 166
additionally 166
nut@@ 166
hannibal 166
ek@@ 166
notation 166
wra@@ 166
das 166
ré@@ 166
serbia 166
breaks 166
rely 166
cooper 166
audiences 166
dential 166
discipl@@ 166
nominations 166
survival 165
psychological 165
succe@@ 165
spaces 165
varieties 165
ος 165
false 165
alge@@ 165
bearing 165
dt 165
depends 165
angular 165
pittsburgh 165
tment 165
annually 165
search@@ 165
shaw 165
ules 165
mentation 165
cran@@ 165
20,000 165
anglican 165
divorced 165
plains 165
restaurant 165
discipline 165
itzer 165
spelling 165
oxidation 165
anium 165
grandmother 165
malaysia 165
clouds 165
marines 165
ported 165
mist@@ 165
spher@@ 165
1864 165
syndrome 165
miami 165
feel@@ 165
borne 164
calcium 164
wester@@ 164
ains 164
attraction 164
tice 164
exile 164
dak@@ 164
karl 164
ested 164
registered 164
esa 164
distant 164
ques@@ 164
oscar 164
concentr@@ 164
enjo@@ 164
personnel 164
advice 164
wed@@ 164
ernest 164
gab@@ 164
enon 164
tes@@ 164
ssa 164
immunity 164
spacecraft 164
12th 164
nazis 164
1881 164
forti@@ 164
structural 163
twin 163
confes@@ 163
victims 163
gence 163
alu@@ 163
nett 163
indeed 163
liver 163
brussels 163
independently 163
suite 163
tech@@ 163
chemicals 163
chromosome 163
roof 163
osaurus 163
observation 163
tine 163
uted 163
anyone 163
gul@@ 163
oir 163
ranger 163
fordshire 163
gem@@ 163
shock 163
kine@@ 163
monarchy 163
otam@@ 163
compil@@ 163
interpretation 163
ʲ@@ 163
fici@@ 163
nt 163
populated 163
relief 163
sony 163
orbits 163
fallen 163
sar 163
silver@@ 162
macedonia 162
cular 162
set@@ 162
aside 162
europeans 162
concentrated 162
termed 162
gru@@ 162
feeling 162
robin 162
sight 162
rock@@ 162
spelled 162
thu@@ 162
maya 162
percus@@ 162
wheels 162
jab@@ 162
anglo-@@ 162
1894 162
pto@@ 162
congo 162
sust@@ 162
esman 162
messages 162
ly-@@ 162
scholar 162
eno@@ 162
provin@@ 162
temp@@ 162
trail 162
novelist 162
sium 162
guilty 162
brigh@@ 162
baldwin 162
colombia 162
hardy 162
mr@@ 162
rhyth@@ 162
ipod 162
lus@@ 161
hurt 161
stravinsky 161
diction 161
ission 161
willi@@ 161
vacuum 161
itive 161
short@@ 161
input 161
mption 161
ghost 161
bombing 161
certified 161
physician 161
ism@@ 161
expec@@ 161
promised 161
canceled 161
cameron 161
ffs 161
ancestors 161
honors 161
mal 161
shr@@ 161
restricted 161
tornadoes 161
owl 161
bod@@ 161
invent@@ 161
11th 161
mid 161
atmospheric 161
iles 161
ussr 161
opus 161
ukrainian 161
tum@@ 161
barcelona 161
scra@@ 161
1861 161
arab@@ 161
ن 161
fled 161
funds 161
110 161
pea@@ 160
abeth 160
stol@@ 160
tours 160
kne@@ 160
graduating 160
stine 160
plain@@ 160
concern 160
liner 160
illo 160
survi@@ 160
downs 160
practiced 160
wait 160
measuring 160
seeking 160
silk 160
anthro@@ 160
kids 160
vors 160
muse@@ 160
arrang@@ 160
basil@@ 160
navigation 160
ʻ@@ 160
radical 160
brew@@ 160
lé@@ 160
1880 160
obtain 160
dorf 159
kingdoms 159
promin@@ 159
dollars 159
establishing 159
doub@@ 159
long-term 159
dimensional 159
leo 159
strengthened 159
referring 159
threat@@ 159
wcw 159
oti@@ 159
ambassador 159
theat@@ 159
german-@@ 159
venezuela 159
zones 159
monarch@@ 159
empress 159
succes@@ 159
organist 159
injuries 159
announc@@ 159
formations 159
continents 159
superior 159
ander 159
anthropol@@ 159
punishment 159
cuis@@ 159
shu@@ 159
vau@@ 159
triangle 159
bull@@ 159
fold 159
prehen@@ 159
nickel 159
91 158
locked 158
wrong 158
gilbert 158
portrayed 158
shadow 158
mons 158
arrest 158
evol@@ 158
lithium 158
columbus 158
comprises 158
valuable 158
laun@@ 158
vous 158
shield 158
widow 158
luther 158
coron@@ 158
lucy 158
iso 158
synthe@@ 158
seattle 158
afternoon 158
nap@@ 158
mae@@ 158
rism 158
boxing 158
shaft 158
hughes 158
bermuda 158
commit@@ 158
180 158
cargo 158
thel@@ 158
drinking 158
conqu@@ 158
six-@@ 158
spiders 157
spoke 157
absolute 157
internationally 157
optera 157
small@@ 157
hugh 157
onymous 157
mills 157
drum 157
scandin@@ 157
indicates 157
mtv 157
comet 157
strauss 157
baron 157
declined 157
inherited 157
biograph@@ 157
accurate 157
renew@@ 157
fungi 157
stewart 157
-to-@@ 157
bordered 157
playoffs 157
aceae 157
sector 157
conquered 157
ado 157
tril@@ 157
supple@@ 157
ela 157
ando 157
regent 157
taste 157
duchess 157
infr@@ 157
sic 157
eous 156
possibility 156
dless 156
1850 156
concerned 156
ravens 156
simultaneously 156
ks@@ 156
thy@@ 156
sheet 156
attempting 156
kan 156
meanwhile 156
1899 156
correctly 156
lum 156
kee 156
deposits 156
character@@ 156
diamond 156
omer@@ 156
stitu@@ 156
dissi@@ 156
practices 156
anci@@ 156
hob@@ 156
rels 156
sustained 156
fan@@ 156
eda 156
got@@ 156
school@@ 156
perman@@ 156
collaboration 156
circumstances 155
supp@@ 155
societies 155
involve 155
aut@@ 155
newspapers 155
aluminium 155
palat@@ 155
lloyd 155
distinction 155
indicated 155
strategic 155
athletic 155
pseu@@ 155
interstate 155
execution 155
astronomer 155
substantial 155
bot 155
tens 155
solu@@ 155
governing 155
handed 155
pose@@ 155
oon 155
wake 155
pal 155
battle@@ 155
moderate 155
ethiop@@ 155
bie 155
apply 155
prizes 155
ç@@ 155
hill@@ 155
stellar 155
representation 155
maps 155
investig@@ 155
legally 155
whales 155
demic 155
ysis 155
populous 155
π@@ 155
melody 155
cana@@ 155
architec@@ 155
nmost 155
speeds 154
'm 154
tigers 154
accur@@ 154
chase 154
paired 154
sonata 154
lung 154
arkansas 154
eri@@ 154
belize 154
coral 154
discussion 154
ɒ@@ 154
sored 154
performers 154
omin@@ 154
estimates 154
fru@@ 154
encyclopedia 154
circum@@ 154
arn@@ 154
milky 154
canon 154
visiting 154
epic 154
ía 154
essentially 154
consistent 154
liberty 154
invol@@ 154
swam@@ 154
shots 154
umes 154
objec@@ 154
shima 154
divorce 154
pompe@@ 154
orchestras 154
1887 154
č@@ 154
commission@@ 154
burial 153
desire 153
ott@@ 153
alled 153
vali@@ 153
competi@@ 153
fewer 153
tility 153
itter 153
fen@@ 153
conte@@ 153
oliver 153
у@@ 153
stein@@ 153
absence 153
telling 153
fare 153
evangel@@ 153
amaz@@ 153
frankfurt 153
belong@@ 153
beck 153
tonic 153
killer 153
comedian 153
upri@@ 153
shopping 153
mel 153
insect 153
girlfriend 153
carto@@ 153
gap 153
gal 153
itals 153
quin@@ 153
cred@@ 153
oxidi@@ 153
peace@@ 153
nickel@@ 153
theorem 153
rier 153
figh@@ 153
1885 153
sni@@ 153
pover@@ 153
zh@@ 153
mosques 152
tta 152
haus@@ 152
12-@@ 152
then-@@ 152
defended 152
recommended 152
camer@@ 152
leonardo 152
hampshire 152
discoveries 152
forth 152
encing 152
fortun@@ 152
appeal 152
ds@@ 152
slam 152
leban@@ 152
bang@@ 152
elementary 152
aimed 152
loop 152
ester 152
theod@@ 152
armor 152
gment 152
erup@@ 152
emigr@@ 152
preparation 152
knights 152
160 152
elli 152
sticks 152
-lcb- 152
shoot 152
1620 152
traded 152
google 152
yer@@ 152
claim@@ 152
coast@@ 152
hir@@ 152
spectro@@ 152
ady 152
oppos@@ 152
yland 152
ob 152
equations 152
penalty 152
commod@@ 152
itting 152
bradford 151
dioc@@ 151
wick@@ 151
tasmania 151
math 151
nurse 151
attacking 151
palm 151
rotation 151
clearly 151
publicly 151
inno@@ 151
1870 151
describing 151
legitimate 151
chemist 151
1867 151
swan 151
seoul 151
helen 151
thru@@ 151
protocol 151
cheese 151
carbon@@ 151
everyone 151
pen 151
fea@@ 151
presidents 151
gand@@ 151
flowering 151
м@@ 151
rod 151
top-@@ 151
ause 151
gregory 151
navi@@ 151
2.5 151
1862 151
environments 151
salv@@ 151
pigment 150
holm 150
tchaikovsky 150
truman 150
moons 150
pand@@ 150
tested 150
writes 150
inser@@ 150
hec@@ 150
seals 150
carriers 150
remo@@ 150
histor@@ 150
ère 150
traction 150
pet@@ 150
mirror 150
jor@@ 150
horizontal 150
song@@ 150
reads 150
promis@@ 150
button 150
voic@@ 150
leipzig 150
releasing 150
oak 150
suc@@ 150
radioactive 150
nicol@@ 150
doubles 150
serial 150
.d. 150
admitted 150
tz@@ 150
-rcb- 150
explains 150
thames 150
ific@@ 150
liby@@ 150
neighboring 150
murdered 150
shers 150
rd 149
sebastian 149
collo@@ 149
tobac@@ 149
legislature 149
renowned 149
davi@@ 149
percent@@ 149
griff@@ 149
aim 149
15-@@ 149
assistance 149
uniform 149
drove 149
fruits 149
helium 149
1891 149
beijing 149
icon@@ 149
eo@@ 149
creatures 149
tering 149
nests 149
amazon 149
puppet 149
brad@@ 149
enterprise 149
grades 149
vow@@ 149
tornado 149
lighter 149
teachings 149
belonging 149
suddenly 149
ingham 149
ß@@ 149
chand@@ 149
slow@@ 149
geographical 149
leap 149
ousness 148
volcano 148
armored 148
modern-day 148
echo@@ 148
yers 148
remainder 148
cos 148
ono 148
parking 148
volcanoes 148
luci@@ 148
differ 148
wayne 148
elsewhere 148
são 148
alb@@ 148
obli@@ 148
tot@@ 148
partnership 148
story@@ 148
oma 148
gravitational 148
employees 148
infra@@ 148
switched 148
monte 148
colos@@ 148
empty 148
peti@@ 148
placing 148
hr 148
bce 148
nev@@ 148
ssi@@ 148
mac 148
pilots 148
ū@@ 148
tunnel 148
prev@@ 148
oming 148
millennium 148
revival 148
holland 148
tari@@ 148
subspecies 148
gia 148
י@@ 148
typho@@ 148
partners 148
ago@@ 148
travel@@ 148
orléans 148
soccer 148
1863 148
eag@@ 148
wiki 148
wool@@ 148
crust@@ 147
sauro@@ 147
crowd 147
reducing 147
ode@@ 147
georg@@ 147
iller 147
iranian 147
legendary 147
hardware 147
monument 147
prot@@ 147
freshwater 147
tl@@ 147
cip@@ 147
ex 147
momentum 147
ask 147
else 147
l-@@ 147
eruption 147
zzle 147
friendly 147
vampire 147
ín 147
sche@@ 147
operates 147
sensitive 147
extends 147
9,@@ 147
belarus 147
decides 147
intelli@@ 147
21st 147
simpli@@ 147
restor@@ 147
influ@@ 147
eline 147
restaurants 147
dallas 147
skating 147
ultimate 147
talking 147
belongs 147
papers 147
nun@@ 147
trop@@ 147
adjacent 147
feder@@ 147
0.0@@ 147
further@@ 147
whilst 147
affili@@ 147
symphonies 147
liverpool 147
acle 147
meet@@ 147
hl 146
chlorine 146
channels 146
orleans 146
worker 146
easter 146
uki 146
countered 146
mask 146
bria 146
thereafter 146
amma 146
backing 146
amsterdam 146
eta 146
alcohol@@ 146
augu@@ 146
pical 146
arith@@ 146
cornwall 146
ralph 146
adolf 146
river@@ 146
surpri@@ 146
yd 146
1871 146
poor@@ 146
cross@@ 146
jonathan 146
astronomical 146
blue@@ 146
iser 146
pay-per-view 146
come@@ 146
guardian 146
monster 146
frequ@@ 146
reti@@ 146
segment 146
varying 146
twentieth 146
lati@@ 146
nes@@ 146
scores 146
offspring 146
rie 146
emper@@ 146
agencies 146
var 146
absorbed 145
siege 145
ris@@ 145
soundtrack 145
taxonom@@ 145
8,@@ 145
iber@@ 145
apping 145
aes@@ 145
comprising 145
och@@ 145
casu@@ 145
dia@@ 145
eks 145
guaran@@ 145
gian 145
ов@@ 145
remnants 145
urdu 145
sty 145
twel@@ 145
catalo@@ 145
properly 145
compact 145
collins 145
fear@@ 145
circu@@ 145
murray 145
assu@@ 145
chal@@ 145
venues 145
extensively 145
syrian 145
itan 145
grid 145
annex@@ 145
mir 145
earning 145
hide 145
charle@@ 145
suburb 145
criticized 145
bourne 145
tants 145
wrestler 145
proclaimed 145
owski 145
vincent 145
prove 145
patron 145
hoff@@ 145
wr@@ 144
genesis 144
grove 144
glaci@@ 144
fairly 144
solved 144
turbo@@ 144
savoy 144
ludwi@@ 144
bombs 144
ophone 144
variant 144
geographic 144
secular 144
fibers 144
operative 144
interactions 144
vores 144
outbreak 144
punjab 144
gaelic 144
off-@@ 144
coc@@ 144
broadca@@ 144
protons 144
avian 144
archipel@@ 144
asa 144
mei@@ 144
temperate 144
limits 144
canc@@ 144
premi@@ 144
harm 144
farming 144
colo@@ 144
♯ 144
meso@@ 144
asteroid 144
abolished 144
gical 144
reserv@@ 144
watched 144
editing 144
dure 144
associate 144
astr@@ 144
amphibi@@ 144
light@@ 144
hear 144
dolph@@ 144
stops 144
completing 144
sil 144
presti@@ 143
conflic@@ 143
jay@@ 143
best@@ 143
aco 143
eva 143
soap 143
gues 143
bott@@ 143
inspiration 143
creates 143
juris@@ 143
cal 143
servant 143
commanded 143
atten@@ 143
tetra@@ 143
1879 143
bulgar@@ 143
colonel 143
ayed 143
honey 143
lear@@ 143
approval 143
itarian 143
supposed 143
ashi 143
flux 143
voy@@ 143
stripes 143
angles 143
numbered 143
icks 143
sick@@ 143
scots 143
fastest 143
cartoon 143
oni@@ 143
1866 143
competitive 143
departments 143
soun@@ 143
indone@@ 143
odeon 143
differenti@@ 142
har 142
logical 142
predomin@@ 142
thereby 142
rage 142
helic@@ 142
speed@@ 142
register 142
antarctica 142
art@@ 142
althy 142
sof@@ 142
nuts 142
eries 142
vegas 142
iti@@ 142
angered 142
edited 142
editors 142
evi@@ 142
arabian 142
mater@@ 142
connects 142
acou@@ 142
alised 142
crit@@ 142
sudden 142
clam@@ 142
sag@@ 142
vana 142
putting 142
throat 142
ancestry 142
complex@@ 142
resc@@ 142
businessman 142
conservatory 142
datab@@ 142
editions 142
berk@@ 142
ancing 142
replic@@ 142
x-ray 142
makers 142
tails 142
ska 142
territ@@ 142
magazines 141
other@@ 141
nikol@@ 141
metab@@ 141
scribed 141
.c. 141
fund 141
error 141
pale 141
arly 141
wheat 141
flowing 141
static 141
transpor@@ 141
kett 141
macbeth 141
religions 141
micha@@ 141
xbox 141
large-@@ 141
solo@@ 141
ʒ@@ 141
enor@@ 141
wis@@ 141
ener@@ 141
phe@@ 141
itor@@ 141
americ@@ 141
resident 141
ί@@ 141
noun 141
greeks 141
sens@@ 141
kh 141
itu@@ 141
steven 141
dau@@ 141
patent 141
tec 141
moses 141
ré 141
pill@@ 141
valu@@ 140
certi@@ 140
vertebr@@ 140
tionally 140
pron@@ 140
dying 140
ap 139
bass@@ 139
wealth 139
appe@@ 139
hamp@@ 139
aus@@ 139
prise 139
per-@@ 139
dwar@@ 139
ɐ@@ 139
tai@@ 139
inet 139
adol@@ 138
happ@@ 138
view@@ 138
rhy@@ 138
you@@ 138
alum@@ 137
experim@@ 137
greg@@ 137
assa@@ 137
mom@@ 137
prison@@ 137
osaurs 137
193@@ 137
192@@ 137
metho@@ 137
research@@ 137
shop@@ 136
gi 136
herit@@ 136
simp@@ 135
ɾ@@ 135
festi@@ 135
rest@@ 135
maxim@@ 135
lars 135
drin@@ 135
ø@@ 135
austri@@ 135
km@@ 134
signific@@ 134
istics 134
ː 134
rian 134
intro@@ 133
astronom@@ 133
impres@@ 133
opter@@ 133
ά@@ 133
industri@@ 132
duced 132
fant@@ 132
defini@@ 132
asing 132
195@@ 131
rena@@ 131
vec@@ 131
stry 131
presents 131
tress 131
ditions 131
ό@@ 130
cele@@ 130
duce 130
kel 130
model@@ 130
impro@@ 130
rh@@ 129
satur@@ 129
oxy@@ 129
attribu@@ 129
investi@@ 129
neg@@ 129
satell@@ 129
eld 129
chin@@ 128
year@@ 128
skele@@ 128
melo@@ 127
recomm@@ 127
tournam@@ 127
assic 127
seas 127
enci@@ 127
ament 127
theor@@ 127
expe@@ 127
conn@@ 126
auth@@ 126
lined 126
aim@@ 126
naz@@ 126
ة 126
sound@@ 126
ч 126
desp@@ 126
rapi@@ 126
simul@@ 125
ghter 125
ind 125
exerc@@ 125
geograph@@ 125
situ@@ 125
ario 125
fini@@ 125
shoc@@ 125
ght@@ 124
arsen@@ 124
ī 124
sity 124
oppon@@ 124
escap@@ 124
novel@@ 124
tton 124
commer@@ 123
near@@ 123
cle 123
gic 123
esco 123
xim@@ 123
ð@@ 123
physi@@ 122
ware 122
anian 122
ingu@@ 122
θ@@ 122
stly 121
rises 121
alex@@ 121
correc@@ 121
polic@@ 121
stance 121
ece 121
classi@@ 121
moz@@ 121
call@@ 121
afric@@ 121
princi@@ 121
ests 120
schem@@ 120
tica 120
specim@@ 120
Æ@@ 120
turk@@ 120
د@@ 120
à 120
shad@@ 120
onies 119
fail@@ 119
cess 119
nership 119
ح@@ 119
ere@@ 119
acher 119
scen@@ 118
stru@@ 118
knowle@@ 118
dition 118
roy 118
john@@ 118
stors 118
mans 117
entary 117
quarters 117
touri@@ 117
birth@@ 117
ū 117
stic@@ 117
sit 117
admir@@ 117
ority 116
rif@@ 116
viet@@ 116
eleph@@ 116
conf@@ 116
entially 116
iss@@ 116
δ@@ 116
astero@@ 116
osc@@ 116
compan@@ 116
schol@@ 116
tane@@ 115
tude 115
emy 115
measure@@ 115
azerba@@ 115
christi@@ 115
alpha@@ 115
guit@@ 115
fic 114
brea@@ 114
approxim@@ 114
dep@@ 114
hann@@ 114
bor 114
nel@@ 114
osaur@@ 114
penn@@ 114
confir@@ 114
hind 114
spac@@ 114
ν 114
myth@@ 114
й 114
nex@@ 113
an-american 113
ander@@ 113
choo@@ 113
aband@@ 113
declar@@ 113
ó 113
scho@@ 113
د 112
fate 112
prov@@ 112
ë@@ 112
know@@ 112
eing 112
diam@@ 112
beet@@ 112
ow 112
ounds 111
valent 111
reduc@@ 111
anders 111
pref@@ 111
ticism 111
scand@@ 111
oura@@ 111
itors 111
fashi@@ 111
strugg@@ 111
announ@@ 111
ge-@@ 111
argent@@ 110
fos@@ 110
horiz@@ 110
ses@@ 110
paki@@ 110
anned 109
offen@@ 109
soc@@ 109
appar@@ 109
volun@@ 109
ā 108
ician 108
verte@@ 108
olymp@@ 108
burgh 108
where@@ 108
secu@@ 108
academ@@ 108
vard 107
geo@@ 107
ues 107
γ@@ 107
symph@@ 107
israel@@ 107
beth 107
tum 107
aft 107
geome@@ 107
à@@ 106
centr@@ 106
inve@@ 106
eliz@@ 106
arium 106
raine 106
suppor@@ 106
instrum@@ 106
alian 105
qua@@ 105
gram@@ 105
entr@@ 105
aul 105
temper@@ 105
affa@@ 105
aska 105
mas 105
unity 105
labor@@ 104
politici@@ 104
pti@@ 104
expen@@ 103
்@@ 103
fide 103
stants 103
sugge@@ 103
ம@@ 103
consist@@ 103
colom@@ 103
amphi@@ 103
itude 103
descend@@ 102
atures 102
ی@@ 102
electr@@ 102
descri@@ 102
ו@@ 102
rebel@@ 102
madri@@ 101
facil@@ 101
batt@@ 101
toral 101
ror 101
dicated 101
ength 100
ï@@ 100
Ö@@ 100
copy@@ 100
youn@@ 100
ssive 100
lit 100
dv@@ 100
sten 100
surren@@ 100
inclu@@ 100
sant@@ 100
compe@@ 100
ortho@@ 100
г@@ 100
best-@@ 99
addi@@ 99
appoin@@ 99
ordin@@ 99
frank@@ 99
illu@@ 99
lead@@ 98
power@@ 98
ror@@ 98
use@@ 98
antine 98
adul@@ 98
ution 98
him@@ 98
ellow@@ 97
inde@@ 97
desh 97
advant@@ 97
cric@@ 97
п@@ 97
υ@@ 97
citiz@@ 97
ع@@ 97
big@@ 97
sively 96
ours 96
vine 96
osaur 96
stant 96
bby 96
opport@@ 95
sovere@@ 95
icians 95
pear@@ 95
anton@@ 95
ão 95
onom@@ 95
thesis 95
distingui@@ 95
tee 95
ance@@ 95
puni@@ 95
contem@@ 94
honor@@ 94
β@@ 94
saxon 94
73@@ 94
rix 94
С@@ 93
esis 93
lest 93
chair@@ 93
uring 93
german@@ 93
itable 93
insur@@ 93
issance 93
flic@@ 93
atur@@ 93
radio@@ 93
marri@@ 92
sionally 92
abbrevi@@ 92
anes 92
practi@@ 92
imper@@ 92
ş@@ 92
streng@@ 91
inning 91
kenne@@ 91
mund 91
ycl@@ 91
destruc@@ 91
republic@@ 90
oman 90
princip@@ 90
М@@ 90
vene@@ 90
dney 90
inum 90
dru@@ 90
~ 90
publ@@ 90
elem@@ 89
capac@@ 89
aring 89
aboli@@ 89
А@@ 89
harmonic 89
tet 89
pality 89
gho@@ 89
archit@@ 88
amer@@ 88
compani@@ 88
bey@@ 88
ardo 88
follow@@ 88
consi@@ 87
nitro@@ 87
rought 87
occurr@@ 87
dat@@ 87
legen@@ 87
ר@@ 87
inging 86
ь@@ 86
repu@@ 86
tened 86
inher@@ 86
circul@@ 86
rough@@ 86
cath@@ 86
subur@@ 86
oly@@ 86
atis@@ 86
mosqu@@ 85
commis@@ 85
contro@@ 85
jap@@ 85
cian 85
urity 85
oun 85
less@@ 84
dson 84
å@@ 84
afgh@@ 84
educ@@ 84
ral@@ 84
destroy@@ 84
telescop@@ 84
remn@@ 84
strength@@ 84
supre@@ 84
repti@@ 83
staf@@ 83
poses 83
disci@@ 83
jon@@ 83
iter@@ 83
kshire 83
agan 83
internation@@ 83
bure@@ 82
visu@@ 82
ř@@ 82
ech 82
napole@@ 82
deter@@ 82
gosp@@ 82
armen@@ 82
esses 82
spea@@ 82
cous@@ 82
chemi@@ 82
eth 81
erson 81
inva@@ 81
erals 81
sibility 81
contex@@ 81
autonom@@ 81
concep@@ 81
year-@@ 81
exter@@ 80
symb@@ 80
maced@@ 80
ē@@ 80
e.@@ 80
entertain@@ 80
specially 79
ego 79
deliver@@ 79
crimin@@ 79
hap@@ 79
landscap@@ 79
peter@@ 79
oper 78
purch@@ 78
categ@@ 78
ition 78
lam 78
ira@@ 78
ت@@ 78
dio 78
iso@@ 78
surroun@@ 78
ω@@ 77
oul@@ 77
franch@@ 77
έ@@ 77
⁄@@ 77
insec@@ 77
я 77
sud@@ 77
practic@@ 77
В@@ 77
ership 77
н 77
minne@@ 76
strate@@ 76
isen@@ 76
legitim@@ 76
kilome@@ 76
patter@@ 76
scot@@ 76
belar@@ 76
merch@@ 76
ش@@ 76
artic@@ 76
graded 76
sr 75
א@@ 75
isa@@ 75
inha@@ 75
± 75
menti@@ 75
dwi@@ 75
drum@@ 75
progr@@ 75
depos@@ 75
bap@@ 75
duch@@ 75
encyclop@@ 74
î@@ 74
tero@@ 74
wer 74
yel@@ 74
ŋ@@ 74
norm@@ 74
wom@@ 74
ê@@ 73
cw 73
ه@@ 73
gramm@@ 73
ر 73
nichol@@ 73
egypti@@ 73
poe@@ 72
atar 72
ecture 72
uel 72
ր@@ 72
mania 72
fundam@@ 72
junc@@ 72
bean 72
ject 72
ی 71
ond 71
η@@ 71
suffici@@ 71
fresh@@ 71
orchestr@@ 71
parliam@@ 71
lish 71
substan@@ 70
opini@@ 70
presi@@ 70
extre@@ 70
exhibi@@ 70
programm@@ 70
Р@@ 70
spectr@@ 70
monaster@@ 70
gery 70
mete@@ 69
immun@@ 69
individu@@ 69
iders 69
issu@@ 69
в 69
phili@@ 68
jaz@@ 68
ained 68
pian@@ 68
π 68
applic@@ 68
б@@ 68
eff@@ 68
gusta@@ 68
cem@@ 68
lyn 68
fig@@ 68
vinc@@ 68
ي 68
η 67
fried@@ 67
perio@@ 67
exer@@ 67
veloc@@ 67
success@@ 67
ف@@ 67
К@@ 67
и 67
dden 66
rug@@ 66
் 66
dynam@@ 66
מ@@ 66
rying 66
amat@@ 66
jour@@ 66
mathemati@@ 66
holid@@ 65
stern 65
virg@@ 65
jeff@@ 65
க@@ 65
exi@@ 65
lieuten@@ 65
ilian 65
cathedr@@ 64
lawy@@ 64
paci@@ 64
dani@@ 63
sensi@@ 63
common@@ 63
ɐ 63
indo@@ 63
Г@@ 63
distinc@@ 63
week@@ 63
treat@@ 63
tings 62
mexic@@ 62
ican 62
ה@@ 62
coff@@ 62
ج@@ 62
stron@@ 62
ficial 62
see@@ 62
ellar 62
х@@ 62
child@@ 62
з@@ 62
ե@@ 62
elic 62
dist@@ 61
financi@@ 61
vil 61
ز@@ 61
candi@@ 61
so-@@ 61
bey 61
onym@@ 61
metropol@@ 61
activi@@ 61
ign 61
communi@@ 61
χ@@ 60
gravit@@ 60
kash@@ 60
raven@@ 60
rene@@ 60
produc@@ 60
pha 60
icity 60
ா@@ 60
nam 60
contin@@ 60
metro@@ 60
φ@@ 60
islam@@ 60
ş 60
ń@@ 60
formers 60
Á@@ 60
karyo@@ 59
napol@@ 59
erous 59
Ō@@ 59
spiration 59
atlan@@ 59
ύ@@ 59
vien@@ 59
eat@@ 59
া@@ 59
disa@@ 59
͡@@ 59
ww@@ 59
figu@@ 59
orities 59
steph@@ 58
_@@ 58
aster@@ 58
thic 58
establi@@ 58
crete 58
hemi@@ 58
employ@@ 58
ո@@ 58
ʊ 58
secon@@ 58
̃ 58
ials 58
juni@@ 57
ecraft 57
i.@@ 57
physici@@ 57
lywood 57
freder@@ 57
ë 57
Б@@ 57
anglic@@ 57
ima 57
way@@ 57
dit 57
vide@@ 57
bee@@ 57
ն 56
ṭ@@ 56
ا 56
gest 56
aur 56
clou@@ 56
tiz@@ 56
orig@@ 55
mccar@@ 55
nei@@ 55
defe@@ 55
experi@@ 55
hic@@ 55
attle 55
ı@@ 55
engine@@ 55
ail@@ 55
fili@@ 55
ucle@@ 55
import@@ 54
̃@@ 54
helm 54
tial 54
employe@@ 54
fore 54
ricul@@ 54
ב@@ 54
ß 54
happen@@ 54
bassi@@ 54
ق@@ 54
gae 53
brook@@ 53
charlo@@ 53
lincol@@ 53
mov@@ 53
smoo@@ 53
membr@@ 53
versi@@ 53
É 53
quick@@ 53
tili@@ 53
̯@@ 53
edy 53
icals 53
therine 53
hol 52
ы@@ 52
ounced 52
simultane@@ 52
godde@@ 52
scap@@ 52
stence 52
effec@@ 52
venezu@@ 51
tres 51
forts 51
fl 51
cb@@ 51
edic@@ 51
20s 51
ட@@ 51
ʌ@@ 51
ú 51
П@@ 51
battali@@ 51
superi@@ 51
ì 50
doms 50
pedia 50
possi@@ 50
ц@@ 50
յ@@ 50
debu@@ 50
intermedi@@ 50
apol@@ 50
ţ@@ 50
shment 50
і@@ 50
ն@@ 49
ı 49
acad@@ 49
ד@@ 49
represent@@ 49
garden@@ 49
dipl@@ 49
rach@@ 49
wee@@ 49
isl@@ 49
inia 49
sovi@@ 49
த@@ 49
brief@@ 48
racy 48
Š@@ 48
gency 48
vail@@ 48
vsky 48
eting 48
appropri@@ 48
hoc@@ 48
† 48
drome 48
volt@@ 47
zin@@ 47
्@@ 47
busin@@ 47
scienti@@ 47
there@@ 47
bol 47
Κ@@ 47
avail@@ 47
ɣ@@ 47
incre@@ 47
depu@@ 47
twent@@ 47
advent@@ 46
cil 46
ɪ 46
famil@@ 46
sels 46
stained 46
albu@@ 46
caes@@ 46
Н@@ 46
califor@@ 46
quake 46
swimm@@ 46
ameter 46
ч@@ 46
writ@@ 45
sas 45
ा@@ 45
jects 45
meas@@ 45
ή@@ 45
lyric@@ 45
hydrox@@ 45
ɵ@@ 45
م 45
blin 45
twenti@@ 45
volcan@@ 45
michi@@ 44
پ@@ 44
я@@ 44
ould 44
discover@@ 44
lor 44
choc@@ 44
lew@@ 44
р 44
beha@@ 44
raft 44
வ@@ 44
ک@@ 44
š 44
о 44
nickn@@ 43
grow@@ 43
ி@@ 43
lar 43
غ@@ 43
isco 43
zburg 43
ferred 43
ه 43
byz@@ 43
specific@@ 43
abra@@ 42
thes 42
asy 42
ك@@ 42
iop@@ 42
enth 42
imm@@ 42
noon 42
demon@@ 42
bec 42
vere@@ 42
к 42
owa 42
ط@@ 41
controversi@@ 41
eval 41
ü 41
theore@@ 41
nd 41
ל@@ 41
ril 41
aland 41
bangla@@ 40
্@@ 40
disco@@ 40
र@@ 40
ŏ@@ 40
û@@ 40
ě@@ 40
sched@@ 40
tney 40
tour@@ 40
ŋ 40
е 40
ý 39
voy 39
Ś@@ 39
test@@ 39
centur@@ 39
خ@@ 39
й@@ 39
ւ@@ 39
sands 39
genous 39
manu@@ 39
dall@@ 39
大@@ 39
km\/@@ 39
offs 39
ת 39
ɜ@@ 39
ि@@ 38
intellec@@ 38
ж@@ 38
doctr@@ 38
נ@@ 38
hung@@ 38
inhabit@@ 38
til 38
Δ@@ 38
actu@@ 38
ு@@ 38
θ 38
ciation 38
ل 38
minster 38
environ@@ 37
ferdin@@ 37
hammad 37
ć@@ 37
ḥ@@ 37
Л@@ 37
ʿ@@ 37
emor@@ 37
iev@@ 37
langu@@ 37
sour@@ 37
infan@@ 37
millen@@ 37
گ@@ 37
َ@@ 36
ś@@ 36
nic 36
calend@@ 36
expos@@ 36
belgi@@ 36
anni@@ 36
И@@ 36
ÿ@@ 36
philos@@ 36
Д@@ 36
arre@@ 36
ppi 36
ṇ@@ 36
death@@ 36
jos@@ 36
أ@@ 35
partic@@ 35
Т@@ 35
ʰ@@ 35
ர@@ 35
ž@@ 35
somes 35
amoun@@ 35
vices 35
œ@@ 35
aceous 35
anni 35
tish 35
ה 35
ע@@ 34
egy@@ 34
ש@@ 34
world@@ 34
tay@@ 34
ò@@ 34
ires 34
ω 34
sylvania 34
cret@@ 34
eae 33
guitari@@ 33
ę@@ 33
ɕ@@ 33
ò 33
Π@@ 33
vacu@@ 33
phoen@@ 33
inium 32
unciation 32
ל 32
idation 32
ь 32
deta@@ 32
^ 32
proble@@ 32
sils 32
ʁ 32
ப@@ 32
ব@@ 32
madi@@ 32
never@@ 32
ן 32
و 32
movi@@ 31
chos@@ 31
ǎ@@ 31
ș@@ 31
mathematic@@ 31
critici@@ 31
lo-@@ 31
primar@@ 31
acu@@ 31
स@@ 31
Ø@@ 31
Ó 31
dently 31
ָ@@ 31
ի@@ 31
peninsul@@ 31
Μ@@ 31
softw@@ 31
absol@@ 30
天@@ 30
christian@@ 30
ą@@ 30
engli@@ 30
³ 30
ম@@ 30
ʏ@@ 30
europe@@ 30
ɕ 29
̪@@ 29
offici@@ 29
prac@@ 29
с 29
آ@@ 29
restrial 29
ت 29
icide 29
belie@@ 29
ა@@ 28
ɛ 28
Ā@@ 28
ι 28
ய@@ 28
fes@@ 28
פ@@ 28
sylvan@@ 28
-day 28
matt@@ 28
chromo@@ 28
alab@@ 28
sain@@ 28
ш@@ 28
oul 28
kovsky 28
hebre@@ 28
ή 28
β 28
replac@@ 28
λ 28
bald@@ 28
ى 28
orche@@ 28
singap@@ 27
zig 27
col 27
champi@@ 27
rul@@ 27
lightly 27
dox 27
ē 27
Î@@ 27
한@@ 27
ʃ 27
ld 27
scholar@@ 27
member@@ 27
ہ 26
ன@@ 26
syst@@ 26
տ@@ 26
oreg@@ 26
כ@@ 26
alg@@ 26
mercur@@ 26
alco@@ 26
uled 26
ب 26
nephe@@ 26
ச@@ 26
ì@@ 26
ambass@@ 26
sie@@ 26
ත 26
ʔ@@ 26
ض@@ 25
faste@@ 25
strong@@ 25
famili@@ 25
ultim@@ 25
evin 25
democ@@ 25
ford@@ 25
beauti@@ 25
ä 25
Ḥ@@ 25
י 25
_ 25
Հ@@ 25
ִ@@ 25
ğ@@ 25
Ž@@ 25
azer@@ 24
insp@@ 24
-l@@ 24
ක 24
ɡ 24
friend@@ 24
म@@ 24
sept@@ 24
ג@@ 24
ρ 24
giov@@ 24
ص@@ 24
व@@ 24
Å 24
О@@ 24
ù 24
µ@@ 24
iden@@ 24
ס@@ 24
n'@@ 23
indepen@@ 23
easi@@ 23
queens@@ 23
braz@@ 23
> 23
ի 23
resul@@ 23
chri@@ 23
versary 23
pok@@ 23
Φ@@ 23
injur@@ 23
alo 23
կ@@ 23
ற@@ 23
ounded 23
thium 23
chanc@@ 23
л 23
中@@ 22
chancell@@ 22
religi@@ 22
scul@@ 22
tball 22
ῖ@@ 22
า@@ 22
ი@@ 22
tled 22
heav@@ 22
代 22
exac@@ 22
spheric 22
Σ@@ 22
hatt@@ 22
nether@@ 22
ם 22
great@@ 22
ර 22
athan 21
Ա@@ 21
pers@@ 21
Ş@@ 21
<@@ 21
anal@@ 21
puer@@ 21
shake@@ 21
т 21
vak@@ 21
ս@@ 21
remember@@ 21
stewar@@ 21
ф@@ 21
ô 21
larg@@ 21
ż@@ 21
Å@@ 21
ئ@@ 21
statis@@ 21
margar@@ 21
м 21
ʒ 21
close@@ 20
ந@@ 20
´ 20
nium 20
prus@@ 20
kang@@ 20
ý@@ 20
cept 20
flow@@ 20
Ф@@ 20
kent@@ 20
ּ@@ 20
ক@@ 20
ন@@ 20
baltim@@ 20
র@@ 20
liver@@ 19
uary 19
द@@ 19
İ@@ 19
Х@@ 19
studi@@ 19
Ι@@ 19
frankfur@@ 19
ё@@ 19
Α@@ 19
Č@@ 19
八@@ 19
≤ 19
س 19
selves 19
क@@ 19
distric@@ 19
ח@@ 19
rema@@ 19
nept@@ 19
э@@ 19
tradi@@ 19
atom@@ 19
igr@@ 19
munici@@ 19
chocol@@ 18
hamil@@ 18
ply@@ 18
č 18
ξ@@ 18
ώ@@ 18
ularly 18
ය 18
國@@ 18
ʂ@@ 18
ස 18
calci@@ 18
ள@@ 18
dow 18
र 18
ceme@@ 18
ʋ@@ 18
assium 18
ń 18
մ@@ 18
ṣ@@ 18
matthe@@ 18
ু@@ 17
extrem@@ 17
Θ@@ 17
น@@ 17
ù@@ 17
न@@ 17
ھ@@ 17
divor@@ 17
ɦ@@ 17
≈ 17
ἀ@@ 17
þ@@ 17
ु@@ 17
ῆ@@ 17
ɾ 17
alem 17
business@@ 17
infall 17
王 17
hundre@@ 17
nasty 17
ে@@ 17
æ 17
ö 17
ं@@ 17
ữ 17
§ 17
ְ@@ 17
!@@ 17
entum 16
vehic@@ 16
phia 16
#@@ 16
皇@@ 16
aught 16
ַ@@ 16
Þ@@ 16
performan@@ 16
ع 16
দ@@ 16
¥ 16
皇 16
ș 16
神@@ 16
è 16
perfor@@ 16
octo@@ 16
史@@ 16
î 16
ç 16
-r@@ 16
ද 16
ł 16
ண@@ 16
欠@@ 16
親@@ 15
\@@ 15
ranean 15
ĕ@@ 15
ю@@ 15
febr@@ 15
美@@ 15
ு 15
東@@ 15
portugu@@ 15
ʎ@@ 15
Β@@ 15
ă 15
Ν@@ 15
Λ@@ 15
*@@ 15
dred 15
ি@@ 15
spirit@@ 15
이@@ 15
Е@@ 15
Ż@@ 15
ส@@ 15
ब@@ 15
atmo@@ 15
정@@ 15
ר 15
restaur@@ 15
ّ@@ 15
Ἀ@@ 15
‑@@ 15
offic@@ 15
ɲ@@ 15
daugh@@ 14
ِ@@ 14
extinc@@ 14
iat@@ 14
presid@@ 14
hurric@@ 14
Ú@@ 14
য@@ 14
ת@@ 14
金@@ 14
Ç@@ 14
文@@ 14
norman@@ 14
μ 14
norwe@@ 14
ы 14
Đ@@ 14
ක@@ 14
ɫ@@ 14
া 14
子 14
bile 14
प@@ 14
vels 14
ð 14
weap@@ 14
න 14
ग@@ 14
ல@@ 14
の@@ 14
д 14
ʾ@@ 13
ohi@@ 13
ˠ@@ 13
mississi@@ 13
چ@@ 13
universi@@ 13
ত@@ 13
국@@ 13
ety 13
⁄ 13
ǐ@@ 13
zona 13
ṉ@@ 13
φ 13
through@@ 13
إ@@ 13
rote 13
ħ@@ 13
girl@@ 13
স@@ 13
anish 13
জ@@ 13
episo@@ 13
時@@ 13
श@@ 13
Ö 13
primi@@ 13
ٹ@@ 13
ễ@@ 13
이 13
ј@@ 13
성 12
ἐ@@ 12
ǐ 12
ț@@ 12
ק@@ 12
日@@ 12
ő@@ 12
প@@ 12
ை@@ 12
lik@@ 12
viron@@ 12
alth 12
σ 12
lloy@@ 12
त@@ 12
े@@ 12
ʲ 12
ை 12
ʼ@@ 12
ி 12
‡ 12
occupi@@ 12
diseas@@ 12
Ó@@ 12
դ@@ 12
գ@@ 12
Ü@@ 12
smalle@@ 12
Γ@@ 12
õ@@ 12
pitts@@ 12
ὐ@@ 12
ב 12
ὁ 11
ɑ 11
coali@@ 11
ã@@ 11
ল@@ 11
cathe@@ 11
hercul@@ 11
대@@ 11
ნ@@ 11
기@@ 11
Ε@@ 11
ー@@ 11
ğ 11
რ@@ 11
হ@@ 11
শ@@ 11
veland 11
ས 11
ー 11
tely 11
ร@@ 11
х 11
ा 11
retur@@ 11
漢@@ 11
ُ@@ 11
̌@@ 11
장@@ 11
ã 11
ী@@ 11
北@@ 11
ћ 11
wiscon@@ 11
ֹ@@ 11
仁@@ 11
abs@@ 11
Ä@@ 11
ά 11
Σ 11
ţ 11
ḍ@@ 11
김@@ 11
rement 11
edin@@ 10
清@@ 10
Ł@@ 10
intell@@ 10
ɔ 10
autum@@ 10
☉ 10
Ю@@ 10
李@@ 10
台@@ 10
ῦ@@ 10
道@@ 10
藤@@ 10
teach@@ 10
pay-@@ 10
ė@@ 10
υ 10
brus@@ 10
ท@@ 10
京@@ 10
ी@@ 10
র 10
子@@ 10
ْ@@ 10
正@@ 10
ッ@@ 10
ἰ@@ 10
encyclope@@ 10
կ 10
ů@@ 10
ï 10
ט@@ 10
조@@ 10
成@@ 10
singer-@@ 10
ő 10
strum@@ 10
ك 10
ව 10
첩 10
京 9
צ@@ 9
ibal 9
ׁ@@ 9
ψ@@ 9
earli@@ 9
ɫ 9
agricul@@ 9
花@@ 9
ิ@@ 9
orb@@ 9
Я@@ 9
Ἐ@@ 9
ζ@@ 9
流@@ 9
Ω 9
გ@@ 9
人 9
√ 9
ր 9
च@@ 9
미@@ 9
三@@ 9
≠ 9
ֶ@@ 9
아@@ 9
化@@ 9
我@@ 9
ἄ@@ 9
consecu@@ 9
功@@ 9
リ@@ 9
ལ 9
Մ@@ 9
人@@ 9
ਰ@@ 9
タ@@ 9
寺 9
bachel@@ 9
ン@@ 9
성@@ 9
dise@@ 9
ὑ@@ 9
ย@@ 9
̯ 9
щ@@ 9
し@@ 9
Э@@ 9
ז@@ 9
Τ@@ 9
ั@@ 9
明@@ 9
restri@@ 9
ே@@ 9
̩ 9
́ 9
동@@ 9
robin@@ 9
ම@@ 9
Ш@@ 9
ම 9
ο 9
ε 9
ொ@@ 9
新@@ 9
ί 9
/@@ 9
inea 9
社 9
ན 9
ल@@ 9
quan@@ 9
Ч@@ 8
阿@@ 8
ა 8
ो@@ 8
生@@ 8
伊@@ 8
ɨ 8
stea@@ 8
spiri@@ 8
ἔ@@ 8
民@@ 8
반@@ 8
ੁ@@ 8
sebas@@ 8
后 8
島 8
ん 8
Տ@@ 8
天 8
ழ@@ 8
ệ@@ 8
llery 8
հ@@ 8
chann@@ 8
&b 8
・ 8
dougl@@ 8
І@@ 8
victim@@ 8
ܝ@@ 8
barcel@@ 8
ک 8
も@@ 8
द 8
staur@@ 8
poké@@ 8
太@@ 8
ว@@ 8
Χ@@ 8
的@@ 8
Գ@@ 8
ہ@@ 8
erly 8
stances 8
₤ 8
な@@ 8
武@@ 8
佐@@ 8
य@@ 8
მ@@ 8
å 8
ø 8
ლ@@ 8
字 8
高@@ 8
modern-@@ 8
고@@ 8
명@@ 8
ו 8
δ 8
소@@ 8
զ@@ 8
Ġ@@ 8
ف 8
Í@@ 7
թ@@ 7
athers 7
շ@@ 7
ト@@ 7
ү@@ 7
\ 7
ẓ@@ 7
ং@@ 7
朝 7
sych@@ 7
slovak@@ 7
ṟ@@ 7
ʝ@@ 7
onship 7
도 7
pay-per-@@ 7
주 7
indivi@@ 7
ო@@ 7
magaz@@ 7
¡ 7
ガ@@ 7
Ե@@ 7
oklahom@@ 7
ث@@ 7
政@@ 7
Ц@@ 7
≥ 7
海@@ 7
ώ 7
ψ 7
ز 7
ش 7
ਸ@@ 7
engu@@ 7
玉@@ 7
ح 7
ց@@ 7
수@@ 7
ḥ 7
typic@@ 7
ी 7
chall@@ 7
ї@@ 7
predec@@ 7
அ@@ 7
̞@@ 7
ш 7
न 7
ल 7
պ@@ 7
ancest@@ 7
ল 7
原@@ 7
ह@@ 7
江@@ 7
̍@@ 7
ղ@@ 7
行@@ 7
У@@ 7
ℝ 7
দ 7
비@@ 7
韓@@ 7
区 7
ய 7
ク@@ 7
„ 7
ン 7
previ@@ 7
外@@ 7
̪ 7
amster@@ 7
ʀ@@ 7
면 7
depart@@ 7
kyo 7
occur@@ 7
宮@@ 7
ර@@ 7
ween 7
ظ@@ 7
ල 7
γ 7
白@@ 7
ồ 7
ই@@ 7
ʉ@@ 7
versity 7
base@@ 7
Ղ@@ 6
逆@@ 6
đ@@ 6
Ж@@ 6
ী 6
լ@@ 6
た@@ 6
arctica 6
小@@ 6
horizon@@ 6
བ@@ 6
վ@@ 6
ъ@@ 6
ე 6
ź 6
Վ@@ 6
goti@@ 6
ע 6
ћ@@ 6
և@@ 6
?@@ 6
治@@ 6
어 6
ʑ@@ 6
Թ@@ 6
Ἰ@@ 6
̩@@ 6
선@@ 6
bermu@@ 6
encycl@@ 6
ट@@ 6
խ@@ 6
Ζ@@ 6
ħ 6
ვ@@ 6
寿@@ 6
ա 6
电@@ 6
城 6
） 6
、 6
ƒ 6
अ@@ 6
〈 6
པ 6
ད 6
ར 6
piec@@ 6
ء 6
খ 6
় 6
ন 6
Ē@@ 6
enem@@ 6
क 6
ܐ 6
공@@ 6
त 6
ਾ 6
う@@ 6
平@@ 6
Ä 6
章 6
∘ 6
ძ@@ 6
Ј@@ 6
定 6
ി@@ 6
ா 6
க 6
brevi@@ 6
Ս@@ 6
こ@@ 6
塘@@ 6
沽@@ 6
Ç 6
ड@@ 6
baske@@ 6
分 6
ਾ@@ 6
ḱ@@ 6
ֵ@@ 6
하@@ 6
田@@ 6
れ@@ 6
ľ@@ 6
Λ 6
Γ 6
Η 6
∧ 6
만@@ 6
国@@ 6
春@@ 6
〉 6
proper@@ 6
ো@@ 6
ḷ@@ 6
川@@ 6
ġ@@ 6
п 6
선 5
ܘ@@ 5
়@@ 5
節@@ 5
구 5
ス@@ 5
ง@@ 5
È@@ 5
eties 5
藩 5
ɹ 5
ք@@ 5
加@@ 5
宮 5
ধ@@ 5
시@@ 5
mex@@ 5
자@@ 5
타@@ 5
港@@ 5
ἡ 5
司 5
З@@ 5
Ṣ@@ 5
ŭ 5
ˠ 5
ア@@ 5
เ@@ 5
traf@@ 5
두 5
º 5
চ@@ 5
ץ 5
구@@ 5
キ@@ 5
ց 5
麻@@ 5
ք 5
尊@@ 5
̺@@ 5
部 5
ோ@@ 5
thea@@ 5
長@@ 5
degre@@ 5
ण 5
ῶ@@ 5
ය@@ 5
ළ 5
學@@ 5
ucky 5
ი 5
攻@@ 5
水@@ 5
դ 5
montre@@ 5
ق 5
leip@@ 5
ὀ@@ 5
ე@@ 5
び@@ 5
祖 5
愛@@ 5
（ 5
τ 5
회 5
ག 5
і 5
ˤ@@ 5
弁@@ 5
仁 5
央@@ 5
香@@ 5
χ 5
特@@ 5
म 5
孝@@ 5
元@@ 5
philadel@@ 5
ج 5
ম 5
ɒ 5
Լ@@ 5
뽀@@ 5
massachuset@@ 5
Ṭ@@ 5
ṛ@@ 5
세@@ 5
ṯ@@ 5
林@@ 5
jupit@@ 5
ର 5
일@@ 5
ィ@@ 5
ذ@@ 5
自@@ 5
徳@@ 5
ʱ@@ 5
jab 5
‰ 5
ไ@@ 5
道 5
Ü 5
ê 5
ñ 5
redi@@ 5
ἱ@@ 5
ஆ@@ 5
ư@@ 5
თ@@ 5
百@@ 5
ὕ@@ 5
二@@ 5
ξ 5
բ@@ 5
王@@ 5
ප@@ 5
公@@ 5
ড@@ 5
clos@@ 5
ố@@ 5
라@@ 5
十@@ 5
何@@ 5
passeng@@ 5
ِ 5
‐@@ 5
ˑ@@ 5
̂@@ 5
別@@ 5
tornad@@ 5
系 5
ǔ 5
Т 5
С 5
合@@ 5
國 4
ὰ 4
ロ@@ 4
會 4
望 4
connectic@@ 4
다@@ 4
妹@@ 4
協@@ 4
文 4
電@@ 4
교 4
ស 4
比@@ 4
語 4
계 4
్@@ 4
ٽ@@ 4
视@@ 4
ʔ 4
ව@@ 4
heavy@@ 4
ु 4
晚@@ 4
常@@ 4
ジ@@ 4
ै@@ 4
ブ@@ 4
雪@@ 4
安 4
리 4
ũ@@ 4
真@@ 4
지 4
Շ@@ 4
飯 4
ninten@@ 4
hugh@@ 4
ট@@ 4
ੀ 4
重@@ 4
飛 4
愛 4
ங@@ 4
louisi@@ 4
roosevel@@ 4
গ@@ 4
士@@ 4
강@@ 4
吉 4
都@@ 4
수 4
聖@@ 4
박@@ 4
문 4
Ș@@ 4
月@@ 4
無@@ 4
ල@@ 4
ὸ@@ 4
백@@ 4
Π 4
orlé@@ 4
利 4
り 4
前 4
ਬ@@ 4
∈ 4
雄 4
합@@ 4
Ρ@@ 4
智@@ 4
ध@@ 4
要@@ 4
원@@ 4
@@@ 4
藻@@ 4
̥@@ 4
ą 4
İ 4
ḏ@@ 4
Â@@ 4
위@@ 4
制@@ 4
ồ@@ 4
ს@@ 4
福@@ 4
부 4
ط 4
ế 4
ʕ@@ 4
ɟ@@ 4
ὁ@@ 4
華@@ 4
غ 4
信 4
기 4
荷@@ 4
ீ@@ 4
њ@@ 4
度 4
府 4
Œ@@ 4
ਟ@@ 4
宇@@ 4
ร 4
Ğ@@ 4
転@@ 4
始@@ 4
വ@@ 4
路 4
誠@@ 4
南@@ 4
你@@ 4
천@@ 4
य 4
ḗ@@ 4
ャ@@ 4
제@@ 4
ἑ@@ 4
냉@@ 4
长@@ 4
音@@ 4
শ 4
չ@@ 4
撃@@ 4
즈 4
ბ@@ 4
市@@ 4
学 4
學 4
德@@ 4
Ć@@ 4
科@@ 4
ἕ@@ 4
飛@@ 4
대 4
ّ 4
茶 4
ʼ 4
お@@ 4
ひ@@ 4
行 4
玉 4
い@@ 4
舞@@ 4
detro@@ 4
례@@ 4
스@@ 4
き 4
ument 4
լ 4
迪@@ 4
ơ@@ 4
உ@@ 4
โ@@ 4
ں 4
ト 4
風@@ 4
デ@@ 4
÷ 4
̠ 4
ม@@ 4
Ћ@@ 4
菜 4
世@@ 4
영@@ 4
장 4
경@@ 4
城@@ 4
א 4
À@@ 4
ḓ@@ 4
독@@ 4
御@@ 4
心@@ 4
ච 4
ණ 4
ĩ@@ 4
학@@ 4
mpi@@ 4
ɥ@@ 4
∂ 4
thur 4
Կ@@ 4
immedi@@ 4
隊 4
도@@ 4
会 4
로@@ 4
ย 4
鄭@@ 4
ű@@ 4
leans 4
ூ@@ 4
ਗ@@ 4
四@@ 4
ɬ@@ 4
第@@ 4
К 4
定@@ 4
ǔ@@ 4
中 4
芸@@ 4
ล@@ 4
จ@@ 4
г 4
з 4
О 4
使@@ 4
利@@ 4
Ἄ@@ 4
Ο@@ 3
喬@@ 3
ெ@@ 3
井 3
森 3
ʹ 3
devel@@ 3
關@@ 3
ὸ 3
ὶ 3
പ@@ 3
ष@@ 3
酒 3
ੂ 3
toge@@ 3
竹 3
ต@@ 3
羅 3
교@@ 3
川 3
棋 3
东@@ 3
ს 3
千@@ 3
桜 3
年@@ 3
ভ@@ 3
vancou@@ 3
筷@@ 3
beetho@@ 3
ළ@@ 3
甘@@ 3
ɹ@@ 3
oque 3
Ն@@ 3
む@@ 3
峘 3
ค@@ 3
ʾ 3
や@@ 3
tennes@@ 3
Η@@ 3
喃 3
려 3
ژ@@ 3
산 3
ջ@@ 3
ウ@@ 3
ธ@@ 3
永@@ 3
才@@ 3
야@@ 3
出@@ 3
內@@ 3
ラ@@ 3
˧ 3
ନ 3
ケ@@ 3
ੂ@@ 3
財@@ 3
Ὠ@@ 3
사@@ 3
椒@@ 3
ֿ@@ 3
newspap@@ 3
ჩ@@ 3
̆@@ 3
ے 3
を@@ 3
さ@@ 3
드 3
石 3
ד 3
ש 3
भ@@ 3
進 3
원 3
ᠠ@@ 3
臺@@ 3
Ħ@@ 3
sympt@@ 3
യ 3
凡 3
є@@ 3
盛@@ 3
ַ 3
ṅ@@ 3
ド@@ 3
ŏ 3
지@@ 3
Ş 3
খ@@ 3
易@@ 3
粉@@ 3
양 3
け 3
혜@@ 3
ज@@ 3
教 3
眼@@ 3
力@@ 3
่@@ 3
亞@@ 3
Č 3
媽@@ 3
Ğ 3
ě 3
ė 3
ľ 3
ह 3
स 3
श 3
房 3
방@@ 3
県 3
⅕ 3
ほ@@ 3
յ 3
़@@ 3
හ 3
げ@@ 3
後 3
خ 3
Ə@@ 3
ẹ 3
泉@@ 3
豆 3
ἶ@@ 3
Υ@@ 3
倉@@ 3
์ 3
라 3
덕@@ 3
松@@ 3
ḇ 3
ਨ@@ 3
ǣ@@ 3
Ὦ@@ 3
津@@ 3
パ@@ 3
华@@ 3
니@@ 3
良@@ 3
and\/@@ 3
න@@ 3
猿@@ 3
ɳ@@ 3
毓@@ 3
wrestle@@ 3
ང 3
セ@@ 3
土@@ 3
ถ@@ 3
帝 3
臨@@ 3
あ@@ 3
manhatt@@ 3
存@@ 3
ট 3
字@@ 3
団 3
у 3
ц 3
mediter@@ 3
호 3
ǧ@@ 3
Р 3
ڀ@@ 3
ᾶ@@ 3
妓 3
去@@ 3
시 3
島@@ 3
थ 3
დ@@ 3
朝@@ 3
ź@@ 3
ষ 3
치 3
ি 3
ব 3
池 3
ਦ@@ 3
ֲ@@ 3
節 3
말 3
指@@ 3
智 3
尼@@ 3
˧@@ 3
ඩ@@ 3
陳@@ 3
බ@@ 3
ਘ 3
ぐ@@ 3
상 3
← 3
pse@@ 3
か@@ 3
Ø 3
â 3
ാ@@ 3
저 3
ܡ@@ 3
ἡ@@ 3
임@@ 3
พ@@ 3
황@@ 3
ʙ 3
イ@@ 3
ʿ 3
カ 3
싸@@ 3
안@@ 3
街 3
단 3
∞ 3
伐 3
ả@@ 3
夏@@ 3
Ῥ@@ 3
黄@@ 3
Ռ@@ 3
나@@ 3
波 3
と 3
か 3
生 3
之@@ 3
չ 3
惟@@ 3
리@@ 3
Ἑ@@ 3
ھ 3
Ḡ@@ 3
ツ 3
@ 3
윤@@ 3
의 3
효@@ 3
ి 3
♥ 3
ṃ@@ 3
À 3
し 3
能 3
̥ 3
ਿ 3
ా@@ 3
escop@@ 3
ど@@ 3
郎@@ 3
雇@@ 3
ộ@@ 3
ә@@ 3
本@@ 3
Ὀ@@ 3
↑ 3
아 3
海 3
უ@@ 3
ʐ@@ 3
삼@@ 3
上 3
一 3
超@@ 3
博@@ 3
ূ@@ 3
， 3
延@@ 3
อ@@ 3
ග 3
ධ 3
ප 3
蛇 3
κ 3
ζ 3
∆ 3
distri@@ 3
ż 3
ſ 3
朱@@ 3
快 3
ŗ@@ 3
ố 3
ち@@ 3
ấ@@ 3
ม 3
社@@ 3
Ά@@ 3
호@@ 3
戸@@ 3
西@@ 3
ṓ 3
ṭ 3
इ@@ 3
శ@@ 3
鹿@@ 3
ٹ 3
坂 3
ะ@@ 3
Д 3
མ 3
인 3
vae 3
आ@@ 3
葛@@ 3
耳@@ 3
五@@ 3
후 3
ճ@@ 3
ば@@ 3
慈@@ 3
ǎ 3
͈@@ 3
У 3
内@@ 3
Г 3
汉@@ 3
യ@@ 3
刺@@ 3
ܣ@@ 2
ี@@ 2
municip@@ 2
ὖ 2
マ@@ 2
응@@ 2
데@@ 2
居@@ 2
事 2
秦@@ 2
期 2
ల@@ 2
朗 2
ඌ@@ 2
伏@@ 2
片@@ 2
ᠨ 2
磯@@ 2
メ@@ 2
宋@@ 2
蝦@@ 2
ܓ@@ 2
斗 2
군 2
afghani@@ 2
dren 2
陵 2
ť@@ 2
Ǧ@@ 2
空@@ 2
생@@ 2
碟 2
照@@ 2
ត 2
瓦@@ 2
꼼@@ 2
Ẓ@@ 2
ू@@ 2
ך@@ 2
석 2
秀@@ 2
式@@ 2
들@@ 2
မ 2
紀@@ 2
ﬁ@@ 2
卉@@ 2
継@@ 2
喜@@ 2
モ@@ 2
Ж 2
希 2
鸟@@ 2
面 2
藤 2
ү 2
̧@@ 2
羅@@ 2
ḇ@@ 2
覽@@ 2
ɳ 2
ɲ 2
ɯ 2
콜 2
部@@ 2
楽 2
닛 2
稲@@ 2
ỉ@@ 2
喝 2
다 2
度@@ 2
箸 2
थ@@ 2
联@@ 2
留@@ 2
サ@@ 2
э 2
布@@ 2
짜 2
橫@@ 2
憲 2
笠@@ 2
ஜ@@ 2
ീ@@ 2
좋@@ 2
山 2
더 2
ـ@@ 2
opher 2
总@@ 2
賀@@ 2
beij@@ 2
終@@ 2
ackdown 2
남@@ 2
巢 2
හ@@ 2
இ@@ 2
箸@@ 2
۞ 2
夷@@ 2
増@@ 2
ユ@@ 2
柯@@ 2
句 2
史 2
珠 2
칠@@ 2
락 2
ʧ@@ 2
ყ@@ 2
会@@ 2
ǜ 2
巴@@ 2
동 2
視@@ 2
화@@ 2
珍@@ 2
ŭ@@ 2
galax@@ 2
걸@@ 2
ˤ 2
˩ 2
˚ 2
ზ 2
Բ 2
笑@@ 2
治 2
瑟@@ 2
asingly 2
떡@@ 2
拳@@ 2
味 2
検@@ 2
Ż 2
沙@@ 2
exec@@ 2
錢 2
포@@ 2
歡@@ 2
往@@ 2
一@@ 2
戀 2
禮@@ 2
麋@@ 2
accompani@@ 2
ṁ@@ 2
ტ@@ 2
중@@ 2
報 2
田 2
물 2
ȷ@@ 2
堂 2
철@@ 2
투 2
무@@ 2
운 2
lieu@@ 2
¬ 2
¹ 2
熈@@ 2
水 2
歌 2
壽@@ 2
麦 2
旨@@ 2
竹@@ 2
に@@ 2
征@@ 2
̊ 2
soldi@@ 2
辰@@ 2
charac@@ 2
判 2
动@@ 2
保@@ 2
ớ@@ 2
ứ@@ 2
録@@ 2
登@@ 2
ἴ@@ 2
민@@ 2
ら 2
ジ 2
অ@@ 2
勝@@ 2
見@@ 2
节@@ 2
約@@ 2
昌@@ 2
మ@@ 2
ਿ@@ 2
ܛ@@ 2
軍 2
∇ 2
分@@ 2
外 2
∨ 2
밥 2
방 2
태 2
開@@ 2
답@@ 2
綱@@ 2
vamp@@ 2
洙 2
ও 2
蘭 2
감@@ 2
옥@@ 2
범@@ 2
Ł 2
腦 2
盟@@ 2
ὄ@@ 2
蕎@@ 2
昭@@ 2
녀@@ 2
remain@@ 2
ֆ@@ 2
墟 2
범 2
慶@@ 2
米@@ 2
つ@@ 2
ᐊ@@ 2
മ@@ 2
限 2
newsp@@ 2
ở 2
兰 2
際@@ 2
光 2
ڪ@@ 2
celer@@ 2
Ć 2
Ę 2
ᑲ 2
わ@@ 2
翠@@ 2
っ@@ 2
洗@@ 2
ட 2
进 2
름@@ 2
Բ@@ 2
가@@ 2
ద@@ 2
փ@@ 2
compon@@ 2
浩 2
音 2
鳥@@ 2
ख@@ 2
ネ@@ 2
를 2
敬 2
未@@ 2
ශ 2
甲 2
男 2
前@@ 2
≡ 2
ห@@ 2
، 2
込@@ 2
ض 2
ẓ 2
蓮@@ 2
ਵ@@ 2
急@@ 2
趙@@ 2
洪@@ 2
우@@ 2
将@@ 2
ȵ 2
佛 2
神 2
號@@ 2
서@@ 2
不@@ 2
Ἁ@@ 2
汗 2
妈@@ 2
찬@@ 2
ʷ@@ 2
書 2
压@@ 2
壓@@ 2
ุ@@ 2
維@@ 2
微@@ 2
躍@@ 2
ث 2
○ 2
滸@@ 2
池@@ 2
影@@ 2
ḍ 2
園@@ 2
ơ 2
̤@@ 2
ᠦ@@ 2
萬 2
卓@@ 2
ৈ@@ 2
株@@ 2
Ω@@ 2
康 2
座 2
ầ@@ 2
® 2
>@@ 2
ύ 2
ズ@@ 2
選@@ 2
起 2
走 2
Ξ@@ 2
梅 2
み@@ 2
湯@@ 2
남 2
也 2
乐 2
樂@@ 2
བ 2
འ 2
ਖ@@ 2
他@@ 2
彥 2
너@@ 2
ạ@@ 2
⟨ 2
ム 2
ẽ@@ 2
柳 2
養@@ 2
ょ@@ 2
ナ 2
周@@ 2
币 2
国 2
ѧ 2
Ê@@ 2
歯@@ 2
ў 2
ъ 2
あ 2
য 2
校 2
仙 2
古@@ 2
ར@@ 2
술@@ 2
ല@@ 2
ګ@@ 2
매@@ 2
먹@@ 2
梁@@ 2
念@@ 2
来 2
gosla@@ 2
ム@@ 2
帝@@ 2
십@@ 2
연@@ 2
allel 2
蛙@@ 2
体@@ 2
좌@@ 2
縱@@ 2
熹 2
窓@@ 2
บ@@ 2
Ą 2
布 2
観@@ 2
母 2
熱@@ 2
カ@@ 2
ज 2
ग 2
ब 2
ि 2
შ@@ 2
sudden@@ 2
볶@@ 2
く@@ 2
국 2
薇 2
운@@ 2
景 2
吳@@ 2
ȶ 2
ȴ 2
ȡ 2
根@@ 2
非@@ 2
諾 2
攀@@ 2
준 2
⟩ 2
崎 2
গ 2
ত 2
ẖ@@ 2
ظ 2
가 2
င 2
地@@ 2
ஒ@@ 2
န 2
基@@ 2
Ḩ@@ 2
け@@ 2
ڌ@@ 2
洲@@ 2
ṉ 2
ṃ 2
ܐ@@ 2
亚@@ 2
寇 2
祟@@ 2
만 2
오@@ 2
鮮 2
ѹ@@ 2
蓑@@ 2
る@@ 2
貫@@ 2
＿ 2
ਕ 2
̮@@ 2
捕@@ 2
ռ@@ 2
↔ 2
군@@ 2
Ì 2
Æ 2
홍@@ 2
炒@@ 2
ക@@ 2
沖@@ 2
정 2
七@@ 2
発@@ 2
草 2
台 2
囚@@ 2
コ@@ 2
ʀ 2
ʰ 2
태@@ 2
紀 2
約 2
ゲ@@ 2
干@@ 2
幡@@ 2
樂 2
竜 2
俊@@ 2
慶 2
紫@@ 2
弉@@ 2
ℓ 2
molec@@ 2
♮ 2
♦ 2
♣ 2
♠ 2
ঙ@@ 2
♒ 2
♋ 2
ἦ@@ 2
∑ 2
ى@@ 2
縄@@ 2
礼 2
Ț@@ 2
ତ 2
ଭ 2
有@@ 2
ଜ 2
欢@@ 2
목@@ 2
供@@ 2
ŝ@@ 2
ˀ 2
崇@@ 2
家 2
ঘ@@ 2
で@@ 2
ず@@ 2
都 2
に 2
ヂ@@ 2
左@@ 2
胆@@ 2
ᒡ@@ 2
兰@@ 2
ս 2
ճ 2
գ 2
բ 2
钱 2
Հ 2
黄 2
黎 2
ஊ@@ 2
џ@@ 2
覺@@ 2
所 2
ڑ@@ 2
̊@@ 2
ノ 2
チ 2
众@@ 2
異@@ 2
置@@ 2
=@@ 2
օ@@ 2
ᓘ@@ 2
初@@ 2
汉 2
夢@@ 2
景@@ 2
鹿 2
星@@ 2
燒@@ 2
젓@@ 2
õ 2
奖 2
ㅣ 2
난 2
인@@ 2
거@@ 2
ਮ 2
オ@@ 2
레@@ 2
하 2
淚 2
ช@@ 2
て@@ 2
刀 2
宗@@ 2
角 2
ˀ@@ 2
現@@ 2
仲@@ 2
Ի@@ 2
陵@@ 2
忠@@ 2
鏡@@ 2
聯@@ 2
医@@ 2
야 2
跃@@ 2
티@@ 2
冂 2
居 2
ג 2
ק 2
신@@ 2
申@@ 2
카@@ 2
浜 2
張@@ 2
義 2
方 2
門 2
ള 2
ക 2
律@@ 2
信@@ 2
三 2
上@@ 2
系@@ 2
恒@@ 2
辣 2
偉@@ 2
羽@@ 2
ञ@@ 2
盧@@ 2
季@@ 2
플@@ 2
thern 2
半@@ 2
ཀ@@ 2
ඩ 2
琉@@ 2
孫@@ 2
♡ 2
氏@@ 2
Ќ@@ 2
Κ 2
Ε 2
ഡ@@ 2
六@@ 2
支 2
∀ 2
∝ 2
∴ 2
현@@ 2
Ń 2
ŝ 2
Ś 2
ů 2
Ź 2
along@@ 2
裁@@ 2
呼@@ 2
潘@@ 2
伯 2
伝 2
傳 2
幕@@ 2
ְ 2
ง 2
売 2
群 2
吸@@ 2
ښ@@ 2
Ţ@@ 2
龍 2
財 2
ᠭ@@ 2
闘@@ 2
ペ@@ 2
adjac@@ 2
倉 2
給@@ 2
來 2
ప@@ 2
尼 2
mosco@@ 2
창@@ 2
枝 2
ṯ 2
櫻 2
차 2
illino@@ 2
ゼ@@ 2
後@@ 2
活@@ 2
飞 2
嶋@@ 2
Ι 2
よ@@ 2
용@@ 2
症 2
性@@ 2
ʈ@@ 2
修@@ 2
제 2
ポ@@ 2
ཟ 2
协@@ 2
バ@@ 2
ܫ@@ 2
서 2
ܢ@@ 2
歲@@ 2
ň@@ 2
方@@ 2
安@@ 2
事@@ 2
世 2
래 2
禮 2
言@@ 2
集 2
麵 2
치@@ 2
ס 2
ก@@ 2
ܪ@@ 2
球@@ 2
Х 2
Я 2
Б 2
М 2
阪 2
幣 2
英@@ 2
둘@@ 2
ʈ 2
團 1
圓 1
력@@ 1
녀 1
地 1
재@@ 1
Չ@@ 1
亮 1
冨@@ 1
ὴ 1
ʨ 1
ʦ 1
健@@ 1
匹@@ 1
用@@ 1
‿ 1
ㄱ@@ 1
switzer@@ 1
È 1
亀 1
림@@ 1
戦@@ 1
號 1
친@@ 1
벌 1
综@@ 1
美 1
조 1
允@@ 1
보@@ 1
Ὁ 1
ᠢ 1
内 1
distingu@@ 1
개@@ 1
枢@@ 1
ɴ 1
Ἅ@@ 1
ി 1
駅 1
ㅈ@@ 1
ײ@@ 1
蕉 1
ۂ 1
੍@@ 1
..@@ 1
ὠ@@ 1
Պ@@ 1
Ճ@@ 1
ൂ@@ 1
驗 1
珠@@ 1
̰@@ 1
ឡ 1
ប 1
ព 1
រ 1
қ@@ 1
Ḫ@@ 1
展@@ 1
커@@ 1
ㄹ@@ 1
̟@@ 1
谢@@ 1
說 1
付@@ 1
嵐 1
摩@@ 1
ʨ@@ 1
술 1
롱 1
၁ 1
े 1
츠 1
അ@@ 1
西 1
উ@@ 1
藏 1
З 1
尾@@ 1
热@@ 1
Ґ 1
ජ@@ 1
公 1
잔@@ 1
এ@@ 1
Ὑ@@ 1
峡 1
Ѓ 1
క@@ 1
九 1
历 1
ὰ@@ 1
ɓ 1
介 1
애@@ 1
邑@@ 1
검@@ 1
♆ 1
术 1
쥐 1
狼@@ 1
আ@@ 1
ু 1
Љ 1
朴 1
길@@ 1
သ@@ 1
브@@ 1
茨@@ 1
거 1
daries 1
ό 1
艦@@ 1
楼 1
ȟ@@ 1
님 1
志@@ 1
善 1
추@@ 1
干 1
립 1
ㅌ@@ 1
ズ 1
謙@@ 1
決@@ 1
黽@@ 1
歐@@ 1
￡ 1
ସ@@ 1
於@@ 1
術 1
노@@ 1
ਤ@@ 1
體 1
읍@@ 1
⊙ 1
Ἡ 1
獎 1
승@@ 1
組 1
궁@@ 1
光@@ 1
州 1
ੁ 1
ữ@@ 1
寧@@ 1
Ū@@ 1
去 1
ĩ 1
櫛@@ 1
広@@ 1
下@@ 1
チ@@ 1
囧@@ 1
家@@ 1
严@@ 1
玛 1
食 1
愿 1
Ί@@ 1
物@@ 1
⇌ 1
垂@@ 1
就@@ 1
程 1
陽 1
식@@ 1
★ 1
浦@@ 1
판 1
機 1
実 1
荷 1
≫ 1
ᵖ 1
和 1
특@@ 1
陀@@ 1
에@@ 1
유@@ 1
whil@@ 1
極@@ 1
달@@ 1
허@@ 1
謝@@ 1
レ@@ 1
˥ 1
車@@ 1
ˑ 1
ἧ@@ 1
ଶ 1
tchai@@ 1
ぶ@@ 1
杜 1
試@@ 1
沙 1
鮮@@ 1
ʦ@@ 1
河 1
油 1
袁 1
冑 1
十 1
湖@@ 1
幣@@ 1
え@@ 1
物 1
ಸ@@ 1
ਜ@@ 1
요@@ 1
ᡥ@@ 1
ű 1
獨@@ 1
奈 1
梧@@ 1
ọ@@ 1
記 1
ର@@ 1
ඟ 1
칡@@ 1
比 1
毛 1
ܦ@@ 1
형@@ 1
ഴ@@ 1
斗@@ 1
戦 1
潤@@ 1
飯@@ 1
ଚ@@ 1
엔@@ 1
ও@@ 1
騎@@ 1
己@@ 1
児@@ 1
町 1
軍@@ 1
握@@ 1
온@@ 1
勁 1
짝 1
ण@@ 1
肺@@ 1
ङ@@ 1
然@@ 1
험 1
能@@ 1
。 1
奥@@ 1
̻ 1
女@@ 1
民 1
彌@@ 1
Ґ@@ 1
洋@@ 1
千 1
麗 1
聲 1
롱@@ 1
স 1
⁶ 1
ⁿ 1
妈 1
portu@@ 1
터@@ 1
ϕ@@ 1
again@@ 1
饌 1
棣@@ 1
ᾴ@@ 1
オ 1
君 1
應@@ 1
Ἱ@@ 1
Ἠ@@ 1
버 1
見 1
覆 1
ゃ 1
め 1
ょ 1
ゅ 1
远@@ 1
픽@@ 1
産@@ 1
ア 1
ガ 1
キ 1
シ 1
總@@ 1
ら@@ 1
罗 1
̈@@ 1
ీ 1
ూ 1
ế@@ 1
씨 1
ď@@ 1
广@@ 1
ফ@@ 1
ۆ@@ 1
ǫ@@ 1
厚@@ 1
马@@ 1
雲 1
雷 1
၁@@ 1
太 1
陈@@ 1
处 1
ἵ@@ 1
夕 1
밀 1
lawr@@ 1
熙 1
Ἔ@@ 1
振@@ 1
赛@@ 1
熊 1
塚@@ 1
և 1
͘ 1
卯@@ 1
坡@@ 1
ល 1
遠@@ 1
ಳ 1
झ@@ 1
虎@@ 1
店@@ 1
ឬ@@ 1
%@@ 1
腐 1
翼 1
靼@@ 1
জ 1
軟@@ 1
長 1
坝@@ 1
竈@@ 1
ž 1
능@@ 1
郎 1
ფ@@ 1
ㅏ 1
산@@ 1
哈@@ 1
运@@ 1
਼@@ 1
藏@@ 1
龍@@ 1
션@@ 1
幸@@ 1
轉 1
雅@@ 1
た 1
鄭 1
Е 1
ਨ 1
く 1
၂@@ 1
施@@ 1
勳@@ 1
orith@@ 1
露@@ 1
드@@ 1
ㆍ 1
ỗ 1
ן@@ 1
庇 1
禎@@ 1
富@@ 1
ई 1
ǧ 1
언@@ 1
ỳ 1
若@@ 1
ỷ 1
達@@ 1
師@@ 1
į 1
ĭ 1
ビ@@ 1
蹈@@ 1
間@@ 1
勿@@ 1
़ 1
ƿ@@ 1
族 1
器 1
鐵@@ 1
느@@ 1
☺ 1
容@@ 1
傍@@ 1
迁 1
Ñ@@ 1
⋔ 1
హ@@ 1
真 1
⅔ 1
克@@ 1
ө@@ 1
ಕ@@ 1
空 1
树@@ 1
된 1
ㄴ@@ 1
甲@@ 1
氣@@ 1
խ 1
薔@@ 1
港 1
렁@@ 1
葉@@ 1
ბ 1
Χ 1
Ծ@@ 1
技@@ 1
ἥ@@ 1
丁@@ 1
ო 1
经 1
德 1
Ђ@@ 1
데 1
울@@ 1
ự@@ 1
ୱ@@ 1
ئ 1
隊@@ 1
ص 1
ټ@@ 1
逸@@ 1
ẖ 1
ẻ 1
ț 1
豐 1
だ@@ 1
极@@ 1
뮤@@ 1
ᠬ@@ 1
赤@@ 1
敬@@ 1
官@@ 1
尊 1
使 1
独 1
酢@@ 1
⋅ 1
丝@@ 1
Խ@@ 1
叩@@ 1
ў@@ 1
と@@ 1
镜@@ 1
鹽@@ 1
す@@ 1
り@@ 1
¯ 1
¨ 1
예@@ 1
ձ@@ 1
賽 1
ਇ@@ 1
は@@ 1
ণ@@ 1
我 1
ḗ 1
ḽ 1
테@@ 1
暦 1
筷 1
् 1
漢 1
梅@@ 1
工@@ 1
ル@@ 1
민 1
네@@ 1
ହ 1
首 1
월@@ 1
宣@@ 1
団@@ 1
算@@ 1
戌@@ 1
河@@ 1
胡@@ 1
薇@@ 1
栖@@ 1
住@@ 1
禧@@ 1
靈 1
ோ 1
전@@ 1
ช 1
芾 1
궁 1
མ@@ 1
級@@ 1
ᾶ 1
ଗ 1
咸@@ 1
କ 1
퇴 1
ᾈ@@ 1
赋 1
像 1
į@@ 1
熟@@ 1
메@@ 1
孙@@ 1
ٰ@@ 1
ཏ 1
ٌ@@ 1
坝 1
칡 1
坊 1
ʙ@@ 1
ཞ 1
ཙ 1
ཆ 1
全@@ 1
ㅊ@@ 1
浮@@ 1
물@@ 1
ラ 1
광@@ 1
プ 1
ذ 1
ɤ@@ 1
息@@ 1
鹽 1
ɯ@@ 1
闘 1
圣@@ 1
영 1
邱@@ 1
옷 1
觉@@ 1
市 1
橋 1
帶 1
콤 1
ৰ@@ 1
ま@@ 1
恩@@ 1
너 1
넬 1
ը 1
ក@@ 1
囯 1
园 1
囧 1
街@@ 1
ډ 1
屋@@ 1
ё 1
گ 1
ф 1
豆@@ 1
碇@@ 1
ĝ@@ 1
蔥 1
ণ 1
ঁ@@ 1
引@@ 1
ধ 1
仔 1
賢@@ 1
ㅇ@@ 1
ἁ@@ 1
シ@@ 1
村 1
杰 1
数@@ 1
룡 1
后@@ 1
形 1
茶@@ 1
Ό@@ 1
울 1
② 1
먼@@ 1
ਸ 1
령@@ 1
경 1
उ@@ 1
ᠳ@@ 1
짝@@ 1
ච@@ 1
届@@ 1
간@@ 1
appear@@ 1
ర@@ 1
통@@ 1
azerbaij@@ 1
瀋@@ 1
͵@@ 1
ध 1
స@@ 1
ལ@@ 1
慢@@ 1
ḫ@@ 1
빔 1
발@@ 1
霸 1
별@@ 1
峽 1
本 1
Ò@@ 1
ὴ@@ 1
큰 1
达@@ 1
후@@ 1
员@@ 1
ক 1
Յ@@ 1
까@@ 1
থ 1
강 1
ဦ 1
ɱ 1
လ 1
ပ 1
ぺ@@ 1
興 1
ぎ@@ 1
ਏ@@ 1
在 1
ĵ 1
ẵ@@ 1
己 1
翠 1
鮨 1
ृ@@ 1
ṋ 1
靜@@ 1
Ī@@ 1
ჯ@@ 1
ㅍ@@ 1
훈@@ 1
岐 1
侯@@ 1
岩 1
Դ@@ 1
ﬂ@@ 1
殺@@ 1
င@@ 1
ܝ 1
委@@ 1
ܥ 1
ܣ 1
名@@ 1
黒@@ 1
ember 1
Έ@@ 1
ὖ@@ 1
평 1
炎 1
찬 1
坪@@ 1
辅@@ 1
鉑 1
滿@@ 1
韃@@ 1
ĺ@@ 1
ؤ@@ 1
ග@@ 1
ਹ 1
理 1
賽@@ 1
ਪ 1
능 1
는 1
和@@ 1
亥@@ 1
ェ@@ 1
manus@@ 1
辯@@ 1
汤@@ 1
九@@ 1
爆@@ 1
晓@@ 1
ხ@@ 1
그@@ 1
宁@@ 1
賞 1
걸 1
무 1
ȝ@@ 1
員@@ 1
봉@@ 1
점 1
尉 1
鮓 1
ډ@@ 1
里@@ 1
哲 1
헛@@ 1
員 1
ㅂ@@ 1
케@@ 1
矢@@ 1
carib@@ 1
型@@ 1
叶 1
throu@@ 1
狂@@ 1
ʕ 1
ʉ 1
Ֆ@@ 1
連@@ 1
ῑ@@ 1
肉 1
단@@ 1
颐 1
風 1
嚴@@ 1
ℰ 1
℔ 1
樟@@ 1
任@@ 1
ང@@ 1
♜ 1
♖ 1
♐ 1
♊ 1
♈ 1
厘 1
ſ@@ 1
̑ 1
ܠ@@ 1
格@@ 1
molecu@@ 1
ڈ@@ 1
ㅁ@@ 1
해@@ 1
ᾎ@@ 1
玟 1
酒@@ 1
那@@ 1
∕ 1
ヨ@@ 1
赵@@ 1
є 1
ଦ 1
ପ 1
ព@@ 1
命 1
周 1
Ψ@@ 1
ḓ 1
春 1
芭@@ 1
瑪 1
そ@@ 1
[@@ 1
ご@@ 1
拳 1
프@@ 1
頤 1
趁@@ 1
찐@@ 1
campa@@ 1
故@@ 1
泰 1
ṓ@@ 1
み 1
ば 1
ų@@ 1
mathem@@ 1
ᾨ@@ 1
̻@@ 1
北 1
த 1
反@@ 1
ல 1
ச 1
ờ@@ 1
ܥ@@ 1
տ 1
ղ 1
ծ 1
緯 1
苗@@ 1
儚@@ 1
ư 1
ま 1
簫 1
支@@ 1
ଲ@@ 1
權 1
回@@ 1
點 1
欲 1
黻 1
ㅛ 1
弓@@ 1
共@@ 1
岁@@ 1
馬 1
ぬ@@ 1
姿 1
ル 1
ブ 1
バ 1
ビ 1
ダ 1
ㅠ 1
萱 1
強@@ 1
ㆍ@@ 1
부@@ 1
賊@@ 1
硬@@ 1
ौ@@ 1
蒲@@ 1
ἷ@@ 1
汁 1
江 1
ღ@@ 1
ㅅ@@ 1
邓@@ 1
subsequ@@ 1
ㅎ 1
ବ@@ 1
巨@@ 1
또@@ 1
ㅑ 1
Ñ 1
ɶ@@ 1
⎇ 1
绿@@ 1
ῳ@@ 1
̺ 1
̀ 1
̈ 1
晚 1
ֻ@@ 1
ぎ 1
ਦ 1
ਤ 1
境@@ 1
盤 1
瑕 1
학 1
徐@@ 1
롯@@ 1
金 1
釐 1
慰@@ 1
野 1
鎌@@ 1
ㅁ 1
ㅗ 1
ㅕ 1
ㅓ 1
ㅜ 1
ㅡ 1
령 1
ಹ 1
ಡ 1
ಯ 1
ನ 1
Щ@@ 1
舎@@ 1
풍@@ 1
색 1
燕@@ 1
毛@@ 1
テ@@ 1
大 1
၀@@ 1
右@@ 1
ㅡ@@ 1
ქ@@ 1
罵@@ 1
石@@ 1
副@@ 1
equip@@ 1
建@@ 1
壤 1
士 1
壽 1
门 1
ஸ@@ 1
ῥ@@ 1
綜@@ 1
트 1
마@@ 1
vinsky 1
可@@ 1
龙@@ 1
ך 1
ט 1
룡@@ 1
న@@ 1
酌 1
立@@ 1
齋 1
斌 1
ശ 1
型 1
연 1
野@@ 1
에 1
卦 1
吴@@ 1
왕@@ 1
ᠡ@@ 1
薙@@ 1
ニ@@ 1
건@@ 1
典@@ 1
鮨@@ 1
ག@@ 1
Ἡ@@ 1
翡@@ 1
⊕ 1
ਚ@@ 1
평@@ 1
ָ 1
纽@@ 1
Ք@@ 1
統 1
ధ@@ 1
萬@@ 1
颠@@ 1
බ 1
蟹@@ 1
ふ@@ 1
楊@@ 1
Ψ 1
邪@@ 1
Υ 1
檜@@ 1
禅 1
Ξ 1
Ο 1
Α 1
Δ 1
皆 1
∼ 1
代@@ 1
司@@ 1
所@@ 1
ň 1
한 1
랜@@ 1
ř 1
ś 1
œ 1
Œ 1
ќ@@ 1
ų 1
ན@@ 1
死@@ 1
心 1
忍 1
함@@ 1
두@@ 1
법@@ 1
ろ@@ 1
奉@@ 1
伯@@ 1
傑 1
ਹ@@ 1
ҷ@@ 1
鴿@@ 1
豫@@ 1
纬 1
領@@ 1
津 1
isra@@ 1
鍋@@ 1
杨@@ 1
ท 1
ە@@ 1
班 1
栄@@ 1
役 1
ܕ@@ 1
綾@@ 1
speare 1
↓ 1
风@@ 1
刘@@ 1
Ņ@@ 1
텔@@ 1
貘 1
attemp@@ 1
ุ 1
橋@@ 1
웅@@ 1
口@@ 1
비 1
苔 1
導 1
震 1
百 1
白 1
ੀ@@ 1
将 1
ळ@@ 1
희 1
흥 1
枕 1
ṅ 1
嫘@@ 1
ṱ 1
碾@@ 1
秘@@ 1
창 1
ɻ@@ 1
蕭@@ 1
井@@ 1
코@@ 1
ད@@ 1
少@@ 1
峡@@ 1
帯@@ 1
ㄷ@@ 1
В 1
Л 1
ῷ@@ 1
vanc@@ 1
ਆ@@ 1
Н 1
俳@@ 1
Ѕ 1
星 1
ĭ@@ 1
昌 1
明 1
盐 1
办@@ 1
建 1
渖@@ 1
ര@@ 1
일 1
ನ@@ 1
ῃ 1
ῶ 1
已 1
ܟ@@ 1
ཨ 1
鄧@@ 1
త@@ 1
灣@@ 1
증@@ 1
誉@@ 1
김 1
黑@@ 1
ׂ@@ 1
향@@ 1
ソ@@ 1
邱 1
寺@@ 1
辛@@ 1
ɭ@@ 1
丰 1
훗 1
劍@@ 1
ϊ@@ 1
ศ@@ 1
裝@@ 1
로 1
º@@ 1
福 1
ਅ@@ 1
媽 1
爱@@ 1
ܩ@@ 1
ళ@@ 1
譲@@ 1
사 1
ㅋ@@ 1
果 1
栗@@ 1
б 1
ж 1
Ц 1
Ч 1
Ф 1
Ъ 1
Ы 1
Ш 1
Щ 1
Ю 1
Ь 1
А 1
И 1
Й 1
П 1
Ђ 1
І 1
Ї 1
Є 1
Њ 1
Ћ 1
Џ 1
Ќ 1
ସ 1
minneso@@ 1
超 1
麗@@ 1
랭@@ 1
種@@ 1
尹@@ 1
平 1
年 1
答@@ 1
ʌ 1
କ@@ 1
